{
  "version": "1.0",
  "truncation": null,
  "padding": null,
  "added_tokens": [
    {
      "id": 0,
      "content": "<pad>",
      "single_word": false,
      "lstrip": false,
      "rstrip": false,
      "normalized": false,
      "special": true
    },
    {
      "id": 1,
      "content": "<unk>",
      "single_word": false,
      "lstrip": false,
      "rstrip": false,
      "normalized": false,
      "special": true
    },
    {
      "id": 2,
      "content": "<s>",
      "single_word": false,
      "lstrip": false,
      "rstrip": false,
      "normalized": false,
      "special": true
    },
    {
      "id": 3,
      "content": "</s>",
      "single_word": false,
      "lstrip": false,
      "rstrip": false,
      "normalized": false,
      "special": true
    }
  ],
  "normalizer": null,
  "pre_tokenizer": {
    "type": "ByteLevel",
    "add_prefix_space": false,
    "trim_offsets": true,
    "use_regex": true
  },
  "post_processor": null,
  "decoder": null,
  "model": {
    "type": "BPE",
    "dropout": null,
    "unk_token": null,
    "continuing_subword_prefix": null,
    "end_of_word_suffix": null,
    "fuse_unk": false,
    "byte_fallback": false,
    "ignore_merges": false,
    "vocab": {
      "<pad>": 0,
      "<unk>": 1,
      "<s>": 2,
      "</s>": 3,
      "!": 4,
      "\"": 5,
      "#": 6,
      "'": 7,
      "(": 8,
      ")": 9,
      ",": 10,
      "-": 11,
      ".": 12,
      "/": 13,
      "0": 14,
      "1": 15,
      "2": 16,
      "3": 17,
      "4": 18,
      "5": 19,
      "6": 20,
      "7": 21,
      "8": 22,
      "9": 23,
      ":": 24,
      ";": 25,
      "?": 26,
      "A": 27,
      "B": 28,
      "C": 29,
      "D": 30,
      "E": 31,
      "F": 32,
      "G": 33,
      "H": 34,
      "I": 35,
      "J": 36,
      "K": 37,
      "L": 38,
      "M": 39,
      "N": 40,
      "O": 41,
      "P": 42,
      "Q": 43,
      "R": 44,
      "S": 45,
      "T": 46,
      "U": 47,
      "V": 48,
      "W": 49,
      "Y": 50,
      "[": 51,
      "]": 52,
      "a": 53,
      "b": 54,
      "c": 55,
      "d": 56,
      "e": 57,
      "f": 58,
      "g": 59,
      "h": 60,
      "i": 61,
      "j": 62,
      "k": 63,
      "l": 64,
      "m": 65,
      "n": 66,
      "o": 67,
      "p": 68,
      "q": 69,
      "r": 70,
      "s": 71,
      "t": 72,
      "u": 73,
      "v": 74,
      "w": 75,
      "x": 76,
      "y": 77,
      "z": 78,
      "¦": 79,
      "©": 80,
      "ª": 81,
      "Ã": 82,
      "â": 83,
      "Ċ": 84,
      "č": 85,
      "Ġ": 86,
      "Ģ": 87,
      "ĵ": 88,
      "ĺ": 89,
      "Ļ": 90,
      "ľ": 91,
      "Ŀ": 92,
      "Ġt": 93,
      "he": 94,
      "čĊ": 95,
      "Ġa": 96,
      "in": 97,
      "ou": 98,
      "ar": 99,
      "er": 100,
      "on": 101,
      "Ġw": 102,
      "Ġ-": 103,
      "Ġs": 104,
      "Ġthe": 105,
      "or": 106,
      "an": 107,
      "is": 108,
      "re": 109,
      "Ġm": 110,
      "Ġb": 111,
      "Ġh": 112,
      "at": 113,
      "ing": 114,
      "Ġy": 115,
      "en": 116,
      "ll": 117,
      "Ġyou": 118,
      "ĠS": 119,
      "Ġl": 120,
      "Ġto": 121,
      "Ġf": 122,
      "Ġd": 123,
      "ĠI": 124,
      "es": 125,
      "Ġc": 126,
      "it": 127,
      "nd": 128,
      "Ġo": 129,
      "ĠT": 130,
      "ed": 131,
      "ĠL": 132,
      "no": 133,
      "Ġof": 134,
      "ĠSt": 135,
      "ter": 136,
      "Ġhe": 137,
      "as": 138,
      "Ġth": 139,
      "Ġand": 140,
      "ark": 141,
      "om": 142,
      "Ġg": 143,
      "ĠStark": 144,
      "ĠW": 145,
      "ri": 146,
      "ve": 147,
      "ĠB": 148,
      "Ġbe": 149,
      "--": 150,
      "Ġp": 151,
      "Ġin": 152,
      "el": 153,
      "âĢ": 154,
      "le": 155,
      "ĠA": 156,
      "im": 157,
      "ro": 158,
      "ld": 159,
      "gh": 160,
      "ĠM": 161,
      "'s": 162,
      "ys": 163,
      "ĠY": 164,
      "Ġno": 165,
      "ord": 166,
      "Ġis": 167,
      "ĠH": 168,
      "ard": 169,
      "et": 170,
      "Ġk": 171,
      "ĠThe": 172,
      "ad": 173,
      "âĢĻ": 174,
      "ac": 175,
      "al": 176,
      "her": 177,
      "ĠYou": 178,
      "ĠLan": 179,
      "Ġon": 180,
      "Ġme": 181,
      "ĠD": 182,
      "ill": 183,
      "ister": 184,
      "Ġst": 185,
      "se": 186,
      "Ġyour": 187,
      "Ġit": 188,
      "ak": 189,
      "ow": 190,
      "oo": 191,
      "Ġfor": 192,
      "id": 193,
      "Ġwh": 194,
      "ĠK": 195,
      "Ġmy": 196,
      "st": 197,
      "Ġhis": 198,
      "ĠN": 199,
      "ay": 200,
      "nister": 201,
      "ver": 202,
      "ĠLannister": 203,
      "ly": 204,
      "ght": 205,
      "th": 206,
      "Ro": 207,
      "ell": 208,
      "Ġn": 209,
      "and": 210,
      "Ġha": 211,
      "..": 212,
      "ut": 213,
      "ir": 214,
      "am": 215,
      "Ġu": 216,
      "ith": 217,
      "Ġhim": 218,
      "ry": 219,
      "'t": 220,
      "----": 221,
      "Ġe": 222,
      "ĠG": 223,
      "Ġwith": 224,
      "Ġdo": 225,
      "now": 226,
      "heon": 227,
      "Rob": 228,
      "yri": 229,
      "Ġthat": 230,
      "ĠC": 231,
      "Ġre": 232,
      "Ġwas": 233,
      "Ġas": 234,
      "Ġli": 235,
      "ant": 236,
      "Ġat": 237,
      "out": 238,
      "Ġhave": 239,
      "ould": 240,
      "ĠBar": 241,
      "ĠKing": 242,
      "ther": 243,
      "Ġse": 244,
      "ĠWh": 245,
      "ch": 246,
      "dd": 247,
      "atheon": 248,
      "ĠBaratheon": 249,
      "ight": 250,
      "erys": 251,
      "ack": 252,
      "ĠJ": 253,
      "yrion": 254,
      "all": 255,
      "Ġwill": 256,
      "Ġnot": 257,
      "ra": 258,
      "ur": 259,
      "Ġher": 260,
      "Edd": 261,
      "Ġsh": 262,
      "Ġne": 263,
      "ĠHe": 264,
      "Eddard": 265,
      "Ġare": 266,
      "one": 267,
      "ome": 268,
      "ĠTar": 269,
      "ent": 270,
      "if": 271,
      "ĠLord": 272,
      "Ġgo": 273,
      "ha": 274,
      "ce": 275,
      "ast": 276,
      "oy": 277,
      "Ġwe": 278,
      "rom": 279,
      "ru": 280,
      "rey": 281,
      "ood": 282,
      "ck": 283,
      "Tyrion": 284,
      "ĠAnd": 285,
      "Ġman": 286,
      "aen": 287,
      "...": 288,
      "ore": 289,
      "ĠTh": 290,
      "Ġknow": 291,
      "Ġan": 292,
      "Ġthem": 293,
      "Ġall": 294,
      "ime": 295,
      "ook": 296,
      "ĠP": 297,
      "ĠDo": 298,
      "pp": 299,
      "ert": 300,
      "Ġwant": 301,
      "orm": 302,
      "Ġfrom": 303,
      "Ġle": 304,
      "ely": 305,
      "'ll": 306,
      "ary": 307,
      "Ġwhat": 308,
      "aenerys": 309,
      "Ġcan": 310,
      "ather": 311,
      "Ġde": 312,
      "ĠO": 313,
      "ah": 314,
      "Ġsw": 315,
      "ĠTarg": 316,
      "Robert": 317,
      "aryen": 318,
      "ĠTargaryen": 319,
      "our": 320,
      "'re": 321,
      "ont": 322,
      "ĠNo": 323,
      "Ġch": 324,
      "ĠWhat": 325,
      "ĠF": 326,
      "--------": 327,
      "Ġri": 328,
      "ep": 329,
      "rou": 330,
      "ers": 331,
      "ish": 332,
      "Ġwhe": 333,
      "ately": 334,
      "ess": 335,
      "Ġthis": 336,
      "end": 337,
      "alk": 338,
      "Ġsee": 339,
      "atelyn": 340,
      "ind": 341,
      "Ġone": 342,
      "ake": 343,
      "Ġsa": 344,
      "ong": 345,
      "ke": 346,
      "ans": 347,
      "rya": 348,
      "Ġal": 349,
      "ran": 350,
      "il": 351,
      "ion": 352,
      "ĠR": 353,
      "ĠMy": 354,
      "Robb": 355,
      "ĠIt": 356,
      "Jon": 357,
      "Ġout": 358,
      "Ġdon": 359,
      "ust": 360,
      "Ġthey": 361,
      "ester": 362,
      "ear": 363,
      "ĠSnow": 364,
      "ĠV": 365,
      "'m": 366,
      "Ġwould": 367,
      "ael": 368,
      "Ġbro": 369,
      "ff": 370,
      "Ġmen": 371,
      "ĠWe": 372,
      "ĠMorm": 373,
      "Ġlook": 374,
      "Ġfather": 375,
      "Ġup": 376,
      "ansa": 377,
      "ain": 378,
      "ĠBael": 379,
      "ĠMormont": 380,
      "ves": 381,
      "Ġbl": 382,
      "Ġcom": 383,
      "ace": 384,
      "Ġdid": 385,
      "very": 386,
      "Daenerys": 387,
      "ge": 388,
      "go": 389,
      "ven": 390,
      "Ġro": 391,
      "Ġso": 392,
      "ide": 393,
      "Ġbut": 394,
      "Jor": 395,
      "aester": 396,
      "nt": 397,
      "ĠBaelish": 398,
      "Ġab": 399,
      "Ġsu": 400,
      "Ġlike": 401,
      "Catelyn": 402,
      "ie": 403,
      "erse": 404,
      "Ġhere": 405,
      "ersei": 406,
      "qu": 407,
      "Ġshe": 408,
      "op": 409,
      "win": 410,
      "ink": 411,
      "arys": 412,
      "ady": 413,
      "Ġus": 414,
      "tle": 415,
      "Ġtheir": 416,
      "Ġmo": 417,
      "Ġ(": 418,
      "Ġback": 419,
      "Ġbrother": 420,
      "off": 421,
      "ety": 422,
      "ĠThey": 423,
      "Ġar": 424,
      "Ġoff": 425,
      "offrey": 426,
      "ive": 427,
      "'ve": 428,
      "sel": 429,
      "Ġwho": 430,
      "aime": 431,
      "Ġj": 432,
      "Ġif": 433,
      "Ġboy": 434,
      "etyr": 435,
      "Petyr": 436,
      "Ġsp": 437,
      "Ġsword": 438,
      "Cersei": 439,
      "ild": 440,
      "Ġthere": 441,
      "Arya": 442,
      "au": 443,
      "orn": 444,
      "est": 445,
      "ct": 446,
      "em": 447,
      "Ġhas": 448,
      "Ġabout": 449,
      "ine": 450,
      "Ġnow": 451,
      "hal": 452,
      "ame": 453,
      "to": 454,
      "Ġen": 455,
      "ire": 456,
      "Ġget": 457,
      "thing": 458,
      "ave": 459,
      "ding": 460,
      "ere": 461,
      "ĠShe": 462,
      "ĠWhe": 463,
      "ĠYour": 464,
      "urn": 465,
      "The": 466,
      "rak": 467,
      "Ġlo": 468,
      "Jorah": 469,
      "atch": 470,
      "thrak": 471,
      ".]": 472,
      "ron": 473,
      "Ġwalk": 474,
      "ist": 475,
      "rogo": 476,
      "ĠDothrak": 477,
      "Ġwhen": 478,
      "ER": 479,
      "own": 480,
      "Ġtoo": 481,
      "ittle": 482,
      "Ġkill": 483,
      "ĠDrogo": 484,
      "ĠNed": 485,
      "Sansa": 486,
      "row": 487,
      "ts": 488,
      "ds": 489,
      "Ġsay": 490,
      "Ġhor": 491,
      "ĠGo": 492,
      "Ġby": 493,
      "ands": 494,
      "ss": 495,
      "ĠE": 496,
      "Ġany": 497,
      "reat": 498,
      "Ġhear": 499,
      "ward": 500,
      "Ġson": 501,
      "iserys": 502,
      "ick": 503,
      "joy": 504,
      "Ġwor": 505,
      "ber": 506,
      "ile": 507,
      "ne": 508,
      "Ġaw": 509,
      "Ġwere": 510,
      "Ġsome": 511,
      "Ġnever": 512,
      "ays": 513,
      "ies": 514,
      "Ġgood": 515,
      "ĠBut": 516,
      "ĠDothraki": 517,
      "Ġv": 518,
      "Ġru": 519,
      "ous": 520,
      "Ġfe": 521,
      "Ġneed": 522,
      "ears": 523,
      "ED": 524,
      "Ġag": 525,
      "inter": 526,
      "Ġbo": 527,
      "ĠAr": 528,
      "gg": 529,
      "ĠâĢ": 530,
      "Ġdown": 531,
      "un": 532,
      "ings": 533,
      "ĠJon": 534,
      "ab": 535,
      "fe": 536,
      "Ġtime": 537,
      "ĠSer": 538,
      "Ġinto": 539,
      "ĠGrey": 540,
      "ĠRobert": 541,
      "enly": 542,
      "Ġtell": 543,
      "side": 544,
      "Ġor": 545,
      "Ġour": 546,
      "Ġthink": 547,
      "Ġright": 548,
      "round": 549,
      "ĠGreyjoy": 550,
      "ting": 551,
      "Ġsc": 552,
      "Ġlittle": 553,
      "ĠArry": 554,
      "ĠIf": 555,
      "Ġpl": 556,
      "ĠLanding": 557,
      "irl": 558,
      "ving": 559,
      "Ġgirl": 560,
      "ĠGr": 561,
      "Ġshould": 562,
      "ĠPy": 563,
      "Ġarm": 564,
      "ON": 565,
      "een": 566,
      "ol": 567,
      "ree": 568,
      "Ġcould": 569,
      "ĠArryn": 570,
      "Ned": 571,
      "ons": 572,
      "ĠMaester": 573,
      "Ġking": 574,
      "ronn": 575,
      "Ġagain": 576,
      "Jaime": 577,
      "Theon": 578,
      "fore": 579,
      "onor": 580,
      "Ġwar": 581,
      "ath": 582,
      "Ġdra": 583,
      "ĠThere": 584,
      "ĠThat": 585,
      "us": 586,
      "Ġother": 587,
      "Ġaway": 588,
      "Varys": 589,
      "cell": 590,
      "Ġaf": 591,
      "Ġhad": 592,
      "Ġhow": 593,
      "Ġbeen": 594,
      "----------------": 595,
      "ul": 596,
      "well": 597,
      "ĠU": 598,
      "Ġqu": 599,
      "Ġtake": 600,
      "ren": 601,
      "ĠWinter": 602,
      "Bran": 603,
      "Sam": 604,
      "os": 605,
      "Ġtru": 606,
      "are": 607,
      "Ġhead": 608,
      "irst": 609,
      "ĠTarly": 610,
      "Ġwhere": 611,
      "Ġjust": 612,
      "'d": 613,
      "AN": 614,
      "Ġmore": 615,
      "Ġlord": 616,
      "hes": 617,
      "Ġhonor": 618,
      "Ġbefore": 619,
      "Ġevery": 620,
      "ĠWhy": 621,
      "Ġroom": 622,
      "Ġhorse": 623,
      "eep": 624,
      "mand": 625,
      "ps": 626,
      "Ġyears": 627,
      "ĠTyrion": 628,
      "Ġthan": 629,
      "Ġstill": 630,
      "LY": 631,
      "fell": 632,
      "ose": 633,
      "ywin": 634,
      "Ġwon": 635,
      "ĠSe": 636,
      "Ġcl": 637,
      "Ġcome": 638,
      "ase": 639,
      "Ġbet": 640,
      "Ġex": 641,
      "ĠGrace": 642,
      "ĠWinterfell": 643,
      "ot": 644,
      "old": 645,
      "ough": 646,
      "Ġover": 647,
      "Ġchild": 648,
      "celle": 649,
      "Maester": 650,
      "ic": 651,
      "rand": 652,
      "ĠBran": 653,
      "Ġdoes": 654,
      "Ġblood": 655,
      "ĠPycelle": 656,
      "Samwell": 657,
      "NED": 658,
      "ice": 659,
      "ull": 660,
      "uard": 661,
      "ĠJoffrey": 662,
      "Joffrey": 663,
      "ound": 664,
      "Ġsl": 665,
      "ĠSo": 666,
      "ĠHow": 667,
      "ĠHand": 668,
      "Ġgoing": 669,
      "ĠFor": 670,
      "Viserys": 671,
      "ect": 672,
      "Ġra": 673,
      "yrio": 674,
      "ĠCas": 675,
      "der": 676,
      "ty": 677,
      "ways": 678,
      "Ġam": 679,
      "Ġwom": 680,
      "ate": 681,
      "Ġbel": 682,
      "Ġpro": 683,
      "ĠKhal": 684,
      "Ġlife": 685,
      "hae": 686,
      "Ġdead": 687,
      "ĠWhen": 688,
      "Ġwalks": 689,
      "00": 690,
      "Ġ\"": 691,
      "Ġser": 692,
      "Ġmake": 693,
      "Ġmust": 694,
      "Ġfind": 695,
      "esi": 696,
      "Ġcour": 697,
      "Ġonly": 698,
      "Ġalways": 699,
      "Ġlooks": 700,
      "augh": 701,
      "RO": 702,
      "eak": 703,
      "ĠRobb": 704,
      "ane": 705,
      "ite": 706,
      "ĠLady": 707,
      "ĠDaenerys": 708,
      "Ġstar": 709,
      "ĠThis": 710,
      "rough": 711,
      "rone": 712,
      "orth": 713,
      "Ġlast": 714,
      "Ġlong": 715,
      "Ġfight": 716,
      "ĠIs": 717,
      "ĠLu": 718,
      "ters": 719,
      "Ġthing": 720,
      "Ġthrough": 721,
      "AT": 722,
      "Ġlet": 723,
      "ĠWatch": 724,
      "Ġpr": 725,
      "Ġpre": 726,
      "leesi": 727,
      "ach": 728,
      "Ġhapp": 729,
      "haleesi": 730,
      "Ġdrag": 731,
      "EN": 732,
      "pt": 733,
      "ĠArya": 734,
      "Ġwhile": 735,
      "wards": 736,
      "ĠLuwin": 737,
      "uch": 738,
      "wo": 739,
      "ouse": 740,
      "Ġpe": 741,
      "akes": 742,
      "Ġleave": 743,
      "Ġrid": 744,
      "les": 745,
      "Ġtalk": 746,
      "Ġapp": 747,
      "iss": 748,
      "ĠSansa": 749,
      "Ġfri": 750,
      "ĠWall": 751,
      "ĠMa": 752,
      "ĠKhaleesi": 753,
      "Ġmany": 754,
      "rong": 755,
      "Ġtent": 756,
      "Ġsm": 757,
      "Ġsister": 758,
      "ort": 759,
      "ann": 760,
      "Ġday": 761,
      "ĠAll": 762,
      "Ġnight": 763,
      "ĠJor": 764,
      "ife": 765,
      "Ġafter": 766,
      "ELY": 767,
      "He": 768,
      "ins": 769,
      "ount": 770,
      "Ġthen": 771,
      "Ġfirst": 772,
      "Ġcall": 773,
      "Ġpo": 774,
      "self": 775,
      "Ġspeak": 776,
      "istan": 777,
      "ĠCassel": 778,
      "ATELY": 779,
      "ATELYN": 780,
      "Renly": 781,
      "ig": 782,
      "ved": 783,
      "Ġcon": 784,
      "âĢ¦": 785,
      "Ġmother": 786,
      "dom": 787,
      "night": 788,
      "Ġdie": 789,
      "Ġold": 790,
      "Ġbeg": 791,
      "lease": 792,
      "Ġask": 793,
      "Grand": 794,
      "You": 795,
      "eor": 796,
      "Ġtwo": 797,
      "ation": 798,
      "its": 799,
      "Ġste": 800,
      "Ros": 801,
      "ĠJaime": 802,
      "ĠOh": 803,
      "ĠQ": 804,
      "outh": 805,
      "Ġway": 806,
      "Ġcut": 807,
      "omet": 808,
      "Ġkeep": 809,
      "ept": 810,
      "Ġdidn": 811,
      "Ġrun": 812,
      "born": 813,
      "nc": 814,
      "Ġtri": 815,
      "ĠNow": 816,
      "hing": 817,
      "mm": 818,
      "sha": 819,
      "ure": 820,
      "wn": 821,
      "ang": 822,
      "Ġlady": 823,
      "Ġdone": 824,
      "ĠMord": 825,
      "Ġnothing": 826,
      "ĠNight": 827,
      "Ġever": 828,
      "Ġrem": 829,
      "ally": 830,
      "Ġsaw": 831,
      "Ġsaid": 832,
      "Bronn": 833,
      "ag": 834,
      "Ġr": 835,
      "Ġword": 836,
      "Ġwell": 837,
      "Ġco": 838,
      "ĠYes": 839,
      "Ġey": 840,
      "ĠWhere": 841,
      "olf": 842,
      "RI": 843,
      "aves": 844,
      "ristan": 845,
      "Ġ1": 846,
      "Ġvery": 847,
      "ince": 848,
      "oras": 849,
      "Ġhu": 850,
      "Ġhold": 851,
      "Ġgi": 852,
      "Ġreal": 853,
      "Ġlove": 854,
      "able": 855,
      "Ġfriend": 856,
      "Tywin": 857,
      "YS": 858,
      "hind": 859,
      "mber": 860,
      "Ġturn": 861,
      "ought": 862,
      "ise": 863,
      "Ġmar": 864,
      "Ġgreat": 865,
      "Ġatt": 866,
      "ĠNot": 867,
      "Ġenough": 868,
      "ERYS": 869,
      "Ġhappen": 870,
      "Shae": 871,
      "my": 872,
      "ue": 873,
      "Ġtowards": 874,
      "ĠStorm": 875,
      "Ġbehind": 876,
      "Ġput": 877,
      "ross": 878,
      "ĠLannisters": 879,
      "ĠCome": 880,
      "ĠCatelyn": 881,
      "ĠKings": 882,
      "Ġnew": 883,
      "ĠGods": 884,
      "ĠSeven": 885,
      "doms": 886,
      "ĠQu": 887,
      "ĠStormborn": 888,
      "CATELYN": 889,
      "RAN": 890,
      "ling": 891,
      "ost": 892,
      "rink": 893,
      "oren": 894,
      "Ġtold": 895,
      "ĠTell": 896,
      "ĠWell": 897,
      "Ġinside": 898,
      "ĠAs": 899,
      "ysa": 900,
      "Ġcham": 901,
      "ĠVarys": 902,
      "ntil": 903,
      "Ġwoman": 904,
      "SE": 905,
      "ft": 906,
      "ily": 907,
      "mp": 908,
      "here": 909,
      "ond": 910,
      "Ġsomet": 911,
      "Ġmuch": 912,
      "ity": 913,
      "Ġhel": 914,
      "Ġgive": 915,
      "Ġguard": 916,
      "Ġkne": 917,
      "ade": 918,
      "Ġrest": 919,
      "Ġseen": 920,
      "Ġcommand": 921,
      "ĠForel": 922,
      "be": 923,
      "har": 924,
      "ring": 925,
      "Ġtra": 926,
      "hed": 927,
      "Ġcar": 928,
      "nder": 929,
      "Ġstand": 930,
      "Ġwhy": 931,
      "Ġname": 932,
      "Ġdoor": 933,
      "Ġdeath": 934,
      "ople": 935,
      "Ġbetter": 936,
      "ĠJorah": 937,
      "epta": 938,
      "Jeor": 939,
      "ale": 940,
      "ble": 941,
      "ness": 942,
      "pen": 943,
      "Ġac": 944,
      "Ġaround": 945,
      "iser": 946,
      "ream": 947,
      "Ġbast": 948,
      "Ġlt": 949,
      "nother": 950,
      "rying": 951,
      "Ġgot": 952,
      "Ġgold": 953,
      "Jory": 954,
      "ĠâĢĵ": 955,
      "Ġbastard": 956,
      "Khal": 957,
      "Osha": 958,
      "Syrio": 959,
      "iel": 960,
      "oth": 961,
      "per": 962,
      "up": 963,
      "uur": 964,
      "Ġthese": 965,
      "Ġbed": 966,
      "ĠSh": 967,
      "ĠSam": 968,
      "Ġfl": 969,
      "ĠLet": 970,
      "Ġheard": 971,
      "ĠDuur": 972,
      "aking": 973,
      "ows": 974,
      "ĠNorth": 975,
      "irri": 976,
      "Ġun": 977,
      "Ġunder": 978,
      "ĠKingdoms": 979,
      "Ġkilled": 980,
      "ĠMaz": 981,
      "In": 982,
      "age": 983,
      "ches": 984,
      "yre": 985,
      "Ġend": 986,
      "Ġhur": 987,
      "Ġhands": 988,
      "Ġdis": 989,
      "Ġthrone": 990,
      "ĠHouse": 991,
      "ĠDon": 992,
      "astle": 993,
      "ieve": 994,
      "ĠUmber": 995,
      "Ġbelieve": 996,
      "Ġdragon": 997,
      "Ġsomething": 998,
      "And": 999,
      "IS": 1000,
      "Lysa": 1001,
      "ait": 1002,
      "ful": 1003,
      "get": 1004,
      "the": 1005,
      "Ġwine": 1006,
      "ence": 1007,
      "Ġfam": 1008,
      "Ġthree": 1009,
      "Ġground": 1010,
      "ĠBronn": 1011,
      "ĠDid": 1012,
      "akhar": 1013,
      "Ġeven": 1014,
      "ĠWho": 1015,
      "Ġcomes": 1016,
      "ember": 1017,
      "Ġfew": 1018,
      "Ġboth": 1019,
      "renn": 1020,
      "Ġeyes": 1021,
      "akharo": 1022,
      "AI": 1023,
      "All": 1024,
      "ever": 1025,
      "jon": 1026,
      "od": 1027,
      "oll": 1028,
      "ses": 1029,
      "uck": 1030,
      "Ġanother": 1031,
      "Ġwife": 1032,
      "Ġside": 1033,
      "Ġmight": 1034,
      "ater": 1035,
      "ene": 1036,
      "Ġfoo": 1037,
      "Ġown": 1038,
      "ĠMo": 1039,
      "alf": 1040,
      "oreah": 1041,
      "Ġalone": 1042,
      "ĠViserys": 1043,
      "Ġsupp": 1044,
      "ause": 1045,
      "reatjon": 1046,
      "Ġtrue": 1047,
      "Ġchildren": 1048,
      "ROB": 1049,
      "IL": 1050,
      "ME": 1051,
      "ier": 1052,
      "jen": 1053,
      "ms": 1054,
      "ment": 1055,
      "ned": 1056,
      "Ġwrong": 1057,
      "Ġsit": 1058,
      "ance": 1059,
      "Ġbat": 1060,
      "enjen": 1061,
      "ĠSel": 1062,
      "Ġca": 1063,
      "Ġcame": 1064,
      "ĠBl": 1065,
      "Ġstop": 1066,
      "Ġret": 1067,
      "chant": 1068,
      "Ġwanted": 1069,
      "ĠOn": 1070,
      "Ġsays": 1071,
      "Ġblack": 1072,
      "emon": 1073,
      "Ġworld": 1074,
      "Ġpeople": 1075,
      "ĠQueen": 1076,
      "AIME": 1077,
      "ĠSelmy": 1078,
      "Wh": 1079,
      "cause": 1080,
      "ip": 1081,
      "Ġim": 1082,
      "Ġmer": 1083,
      "Ġfoll": 1084,
      "Ġdire": 1085,
      "ĠIn": 1086,
      "Ġcou": 1087,
      "Ġcri": 1088,
      "Ġcle": 1089,
      "imes": 1090,
      "Ġmean": 1091,
      "Ġhair": 1092,
      "Ġuntil": 1093,
      "Ġcoming": 1094,
      "ERSE": 1095,
      "ĠMordane": 1096,
      "Ġremember": 1097,
      "Ġhurt": 1098,
      "ERSEI": 1099,
      "Bar": 1100,
      "Doreah": 1101,
      "Mirri": 1102,
      "ied": 1103,
      "igh": 1104,
      "pect": 1105,
      "anc": 1106,
      "ank": 1107,
      "Ġbu": 1108,
      "Ġburn": 1109,
      "Ġhand": 1110,
      "ĠLook": 1111,
      "Ġgl": 1112,
      "âĢĿ": 1113,
      "ĠAre": 1114,
      "ĠAemon": 1115,
      "Ġyourself": 1116,
      "Ġleaves": 1117,
      "Ġleft": 1118,
      "Ġlooking": 1119,
      "Ġhelp": 1120,
      "ield": 1121,
      "Back": 1122,
      "JON": 1123,
      "Yoren": 1124,
      "bers": 1125,
      "ich": 1126,
      "kes": 1127,
      "men": 1128,
      "rri": 1129,
      "tect": 1130,
      "Ġwall": 1131,
      "Ġsqu": 1132,
      "ory": 1133,
      "Ġbring": 1134,
      "Ġhop": 1135,
      "Ġfire": 1136,
      "ĠTyre": 1137,
      "ardis": 1138,
      "act": 1139,
      "Rod": 1140,
      "Ġshall": 1141,
      "Ġwants": 1142,
      "ĠOne": 1143,
      "Ġanything": 1144,
      "Ġgirls": 1145,
      "Ġappro": 1146,
      "Ġattack": 1147,
      "Ġfamily": 1148,
      "Ġreturn": 1149,
      "ĠTyrell": 1150,
      "Grenn": 1151,
      "Greatjon": 1152,
      "Septa": 1153,
      "ald": 1154,
      "day": 1155,
      "ted": 1156,
      "xt": 1157,
      "Ġwatch": 1158,
      "Ġsk": 1159,
      "ated": 1160,
      "Ġdrink": 1161,
      "Ġopen": 1162,
      "ass": 1163,
      "Ġthought": 1164,
      "ĠBe": 1165,
      "ĠCom": 1166,
      "Ġswords": 1167,
      "ERT": 1168,
      "Ġtook": 1169,
      "ĠEvery": 1170,
      "ĠâĢľ": 1171,
      "Ġunderst": 1172,
      "Barristan": 1173,
      "Rodri": 1174,
      "Loras": 1175,
      "cess": 1176,
      "ny": 1177,
      "Ġel": 1178,
      "art": 1179,
      "orry": 1180,
      "Ġmay": 1181,
      "Ġhome": 1182,
      "Ġlaugh": 1183,
      "Ġfear": 1184,
      "Ġdes": 1185,
      "Ġcrow": 1186,
      "ĠTywin": 1187,
      "Ġthings": 1188,
      "Ġbeing": 1189,
      "Ġpri": 1190,
      "leep": 1191,
      "amp": 1192,
      "Ġear": 1193,
      "Ġass": 1194,
      "ĠVale": 1195,
      "Ġcomp": 1196,
      "Ġarmy": 1197,
      "Ġagainst": 1198,
      "Ġdoesn": 1199,
      "Ġride": 1200,
      "At": 1201,
      "JAIME": 1202,
      "SA": 1203,
      "YRI": 1204,
      "eet": 1205,
      "iz": 1206,
      "where": 1207,
      "Ġwind": 1208,
      "Ġsend": 1209,
      "Ġbre": 1210,
      "Ġlad": 1211,
      "Ġche": 1212,
      "Ġcare": 1213,
      "Ġthous": 1214,
      "ĠGre": 1215,
      "Ġsees": 1216,
      "Ġgods": 1217,
      "Ġarri": 1218,
      "orne": 1219,
      "Ġwalking": 1220,
      "ANSA": 1221,
      "ncil": 1222,
      "otho": 1223,
      "YRION": 1224,
      "Lord": 1225,
      "Mord": 1226,
      "We": 1227,
      "cher": 1228,
      "oin": 1229,
      "Ġad": 1230,
      "Ġwood": 1231,
      "Ġsouth": 1232,
      "ress": 1233,
      "Ġface": 1234,
      "ĠTo": 1235,
      "ĠStann": 1236,
      "Ġthro": 1237,
      "Ġplease": 1238,
      "Ġonce": 1239,
      "Ġmeet": 1240,
      "Ġstay": 1241,
      "vers": 1242,
      "ĠGet": 1243,
      "Ġdoing": 1244,
      "Ġshif": 1245,
      "ĠThrone": 1246,
      "ĠFrey": 1247,
      "ĠRenly": 1248,
      "Ġoutside": 1249,
      "Ġgets": 1250,
      "Ġraven": 1251,
      "Ġbegins": 1252,
      "Ġruns": 1253,
      "Ġwords": 1254,
      "Ġbattle": 1255,
      "alder": 1256,
      "ĠStannis": 1257,
      "Ġthroat": 1258,
      "AR": 1259,
      "Rakharo": 1260,
      "TYRION": 1261,
      "aw": 1262,
      "bs": 1263,
      "ng": 1264,
      "ront": 1265,
      "Ġ2": 1266,
      "ĠEddard": 1267,
      "Ġtre": 1268,
      "Ġtakes": 1269,
      "ery": 1270,
      "erha": 1271,
      "Ġwolf": 1272,
      "Ġwait": 1273,
      "Ġsorry": 1274,
      "Ġmur": 1275,
      "Ġhalf": 1276,
      "Ġyes": 1277,
      "Ġda": 1278,
      "Ġdaugh": 1279,
      "ĠImp": 1280,
      "itor": 1281,
      "Ġgr": 1282,
      "ĠTheon": 1283,
      "illion": 1284,
      "Ġyours": 1285,
      "Ġlive": 1286,
      "raid": 1287,
      "Ġnext": 1288,
      "ĠLords": 1289,
      "Ġlead": 1290,
      "ĠOr": 1291,
      "ĠVardis": 1292,
      "Ġsure": 1293,
      "Ġenters": 1294,
      "Ġhorses": 1295,
      "Ġscream": 1296,
      "mander": 1297,
      "tyard": 1298,
      "000": 1299,
      "Ġcourtyard": 1300,
      "Ġrealm": 1301,
      "Ġturns": 1302,
      "Ġchambers": 1303,
      "Ġknew": 1304,
      "ISERYS": 1305,
      "ĠCommander": 1306,
      "Ġelse": 1307,
      "Ġshifts": 1308,
      "erhaps": 1309,
      "CERSEI": 1310,
      "Irri": 1311,
      "Py": 1312,
      "fer": 1313,
      "gor": 1314,
      "iver": 1315,
      "ious": 1316,
      "um": 1317,
      "ready": 1318,
      "Ġmat": 1319,
      "Ġhit": 1320,
      "Ġtoday": 1321,
      "Ġcross": 1322,
      "Ġcamp": 1323,
      "ason": 1324,
      "Ġprom": 1325,
      "ĠHu": 1326,
      "Ġknight": 1327,
      "ĠThen": 1328,
      "Ġstep": 1329,
      "Ġeat": 1330,
      "Robin": 1331,
      "Ġwasn": 1332,
      "aenarys": 1333,
      "ĠThorne": 1334,
      "ĠPr": 1335,
      "ĠPlease": 1336,
      "Ġalready": 1337,
      "ĠRang": 1338,
      "Ġwouldn": 1339,
      "Ġwork": 1340,
      "Ġsomeone": 1341,
      "Ġvis": 1342,
      "gger": 1343,
      "Ġplay": 1344,
      "Ġqueen": 1345,
      "Ġpeace": 1346,
      "ĠBlack": 1347,
      "Ġhope": 1348,
      "Ġunderstand": 1349,
      "King": 1350,
      "VISERYS": 1351,
      "come": 1352,
      "de": 1353,
      "man": 1354,
      "par": 1355,
      "yond": 1356,
      "arm": 1357,
      "Ġsing": 1358,
      "Ġsleep": 1359,
      "Ġbit": 1360,
      "Ġbann": 1361,
      "Ġhus": 1362,
      "inger": 1363,
      "Ġyoung": 1364,
      "Ġlf": 1365,
      "Ġfat": 1366,
      "Ġfall": 1367,
      "Ġfull": 1368,
      "Ġthose": 1369,
      "ĠWalk": 1370,
      "ĠBRAN": 1371,
      "ets": 1372,
      "Ġwhich": 1373,
      "Ġnorth": 1374,
      "Ġwithout": 1375,
      "Ġrep": 1376,
      "hagg": 1377,
      "pped": 1378,
      "ĠRO": 1379,
      "Ġsun": 1380,
      "Ġmove": 1381,
      "Ġbrothers": 1382,
      "isten": 1383,
      "Ġheart": 1384,
      "Ġneeds": 1385,
      "Ġboys": 1386,
      "Ġplace": 1387,
      "Ġeverything": 1388,
      "Ġwomen": 1389,
      "Ġserve": 1390,
      "Ġpres": 1391,
      "Ġhappened": 1392,
      "Ġfool": 1393,
      "Ġfollow": 1394,
      "Ġdirew": 1395,
      "Ġsquire": 1396,
      "AEN": 1397,
      "BRAN": 1398,
      "HE": 1399,
      "Qotho": 1400,
      "St": 1401,
      "ces": 1402,
      "gs": 1403,
      "less": 1404,
      "so": 1405,
      "ye": 1406,
      "Ġtr": 1407,
      "Ġtimes": 1408,
      "ison": 1409,
      "Ġmade": 1410,
      "Ġfin": 1411,
      "Ġfront": 1412,
      "Ġgra": 1413,
      "Ġpick": 1414,
      "ĠHis": 1415,
      "ĠHave": 1416,
      "als": 1417,
      "Ġstrong": 1418,
      "Ġforward": 1419,
      "Ġhall": 1420,
      "Ġhaving": 1421,
      "Ġhimself": 1422,
      "Ġeach": 1423,
      "ĠCle": 1424,
      "Ġread": 1425,
      "Ġnear": 1426,
      "Ġalive": 1427,
      "Ġalso": 1428,
      "Ġsoon": 1429,
      "Ġenem": 1430,
      "unge": 1431,
      "Ġarmor": 1432,
      "--------------------------------": 1433,
      "Ġquick": 1434,
      "Ġeveryone": 1435,
      "Ġcourse": 1436,
      "Ġdragons": 1437,
      "Ġsmall": 1438,
      "ign": 1439,
      "Ġasked": 1440,
      "Ġguards": 1441,
      "upid": 1442,
      "ROBERT": 1443,
      "Ġmurder": 1444,
      "Ġsteps": 1445,
      "Ġhusb": 1446,
      "ĠWalkers": 1447,
      "Ġdirewolf": 1448,
      "AENERYS": 1449,
      "Daenarys": 1450,
      "IN": 1451,
      "RE": 1452,
      "SANSA": 1453,
      "av": 1454,
      "air": 1455,
      "ev": 1456,
      "host": 1457,
      "sh": 1458,
      "Ġord": 1459,
      "Ġsad": 1460,
      "any": 1461,
      "red": 1462,
      "Ġmess": 1463,
      "Ġmakes": 1464,
      "Ġbow": 1465,
      "Ġbest": 1466,
      "Ġless": 1467,
      "ĠIron": 1468,
      "Ġcont": 1469,
      "ĠStop": 1470,
      "Ġgone": 1471,
      "ĠStarks": 1472,
      "Ġkind": 1473,
      "aces": 1474,
      "aches": 1475,
      "Ġstupid": 1476,
      "Ġwhore": 1477,
      "ĠKeep": 1478,
      "uty": 1479,
      "ĠCersei": 1480,
      "ĠCastle": 1481,
      "ĠWhite": 1482,
      "oyal": 1483,
      "ĠThank": 1484,
      "Ġlear": 1485,
      "Ġdef": 1486,
      "Ġsweet": 1487,
      "ongue": 1488,
      "ĠRe": 1489,
      "Ġmoves": 1490,
      "ildling": 1491,
      "rows": 1492,
      "ĠâĢ¦": 1493,
      "Brann": 1494,
      "Ġbloody": 1495,
      "Ġprotect": 1496,
      "Ġimp": 1497,
      "Ġcrim": 1498,
      "ĠGregor": 1499,
      "Ġhusband": 1500,
      "gane": 1501,
      "led": 1502,
      "lings": 1503,
      "mor": 1504,
      "ove": 1505,
      "Ġtak": 1506,
      "Ġtrying": 1507,
      "arillion": 1508,
      "Ġwit": 1509,
      "Ġsame": 1510,
      "ores": 1511,
      "ises": 1512,
      "ised": 1513,
      "Ġmys": 1514,
      "Ġmind": 1515,
      "Ġmine": 1516,
      "Ġmount": 1517,
      "Ġbad": 1518,
      "Ġhouse": 1519,
      "Ġhigh": 1520,
      "ĠSyrio": 1521,
      "Ġlou": 1522,
      "Ġloyal": 1523,
      "Ġfar": 1524,
      "Ġfun": 1525,
      "Ġfree": 1526,
      "Ġdays": 1527,
      "Ġdunge": 1528,
      "Ġcha": 1529,
      "ĠLittle": 1530,
      "not": 1531,
      "Ġbea": 1532,
      "Ġisn": 1533,
      "Ġkn": 1534,
      "Ġnam": 1535,
      "Ġegg": 1536,
      "ĠGood": 1537,
      "ĠGive": 1538,
      "Ġrec": 1539,
      "run": 1540,
      "pping": 1541,
      "Ġriding": 1542,
      "ions": 1543,
      "Ġafraid": 1544,
      "Ġtruth": 1545,
      "ulls": 1546,
      "Ġbelong": 1547,
      "Ġcourt": 1548,
      "Ġpray": 1549,
      "Ġrides": 1550,
      "Ġtalking": 1551,
      "Ġbegin": 1552,
      "Ġhunt": 1553,
      "Ġstanding": 1554,
      "Ġacc": 1555,
      "thel": 1556,
      "Alliser": 1557,
      "ILL": 1558,
      "Ġsitting": 1559,
      "Ġcapt": 1560,
      "Rodrik": 1561,
      "Ġthousand": 1562,
      "Pyp": 1563,
      "ĠClegane": 1564,
      "Ġtaken": 1565,
      ".âĢĿ": 1566,
      "JEN": 1567,
      "Th": 1568,
      "aving": 1569,
      "bing": 1570,
      "each": 1571,
      "ying": 1572,
      "yal": 1573,
      "ĠRo": 1574,
      "Ġtou": 1575,
      "head": 1576,
      "Ġact": 1577,
      "ined": 1578,
      "incess": 1579,
      "arge": 1580,
      "Ġwin": 1581,
      "Ġwish": 1582,
      "Ġsent": 1583,
      "Ġsince": 1584,
      "Ġmiss": 1585,
      "Ġbook": 1586,
      "Ġbrou": 1587,
      "ĠSome": 1588,
      "Ġlater": 1589,
      "Ġfound": 1590,
      "Ġdro": 1591,
      "Ġcat": 1592,
      "Ġcry": 1593,
      "Ġcons": 1594,
      "Ġcity": 1595,
      "Ġcastle": 1596,
      "ĠBenjen": 1597,
      "Ġbear": 1598,
      "Ġbecause": 1599,
      "Ġbeyond": 1600,
      "Ġinter": 1601,
      "elf": 1602,
      "leas": 1603,
      "ĠMad": 1604,
      "ĠMay": 1605,
      "Ġmeant": 1606,
      "Ġstab": 1607,
      "Ġeas": 1608,
      "Ġreally": 1609,
      "ĠBarristan": 1610,
      "Ġshut": 1611,
      "Ġgoes": 1612,
      "Ġknown": 1613,
      "Ġknows": 1614,
      "Ġcannot": 1615,
      "Ġseems": 1616,
      "ĠRiver": 1617,
      "Ġbrothel": 1618,
      "Ġroyal": 1619,
      "Ġmost": 1620,
      "Ġbod": 1621,
      "Ġdraw": 1622,
      "Ġtrust": 1623,
      "LYRI": 1624,
      "Ġwonder": 1625,
      "ully": 1626,
      "ENJEN": 1627,
      "ncle": 1628,
      "mmer": 1629,
      "Ġgiven": 1630,
      "Ġtraitor": 1631,
      "ĠOnly": 1632,
      "Ġcouncil": 1633,
      "Ġapproaches": 1634,
      "Ġvisit": 1635,
      "Ġbanner": 1636,
      "hagga": 1637,
      "ĠROB": 1638,
      "Ġmyself": 1639,
      "Ġbrought": 1640,
      "LYRIO": 1641,
      "\".": 1642,
      "?!": 1643,
      "As": 1644,
      "Benjen": 1645,
      "Marillion": 1646,
      "Sc": 1647,
      "ap": 1648,
      "bt": 1649,
      "dle": 1650,
      "give": 1651,
      "lands": 1652,
      "na": 1653,
      "ning": 1654,
      "wer": 1655,
      "way": 1656,
      "Ġtable": 1657,
      "Ġtongue": 1658,
      "Ġago": 1659,
      "arrow": 1660,
      "onight": 1661,
      "Ġwild": 1662,
      "Ġsur": 1663,
      "ories": 1664,
      "ens": 1665,
      "ense": 1666,
      "Ġdif": 1667,
      "Ġdied": 1668,
      "ĠLoras": 1669,
      "nock": 1670,
      "Ġgu": 1671,
      "ĠWith": 1672,
      "ried": 1673,
      "Ġpast": 1674,
      "ĠAt": 1675,
      "ower": 1676,
      "ĠNED": 1677,
      "Ġnor": 1678,
      "andor": 1679,
      "Ġuse": 1680,
      "ĠCan": 1681,
      "Ġlion": 1682,
      "oney": 1683,
      "ift": 1684,
      "rust": 1685,
      "Ġdec": 1686,
      "Ġswear": 1687,
      "Ġcho": 1688,
      "ĠFirst": 1689,
      "Ġseem": 1690,
      "Ġsold": 1691,
      "Ġsuch": 1692,
      "Ġused": 1693,
      "selves": 1694,
      "Ġjo": 1695,
      "Ġsaying": 1696,
      "Ġanyone": 1697,
      "Ġscene": 1698,
      "Ġshouldn": 1699,
      "Ġclose": 1700,
      "Ġserv": 1701,
      "Ġstarts": 1702,
      "Ġfighting": 1703,
      "ĠAlliser": 1704,
      "ĠJory": 1705,
      "Ġcalled": 1706,
      "Ġspeaking": 1707,
      "Ġconf": 1708,
      "Ġsteel": 1709,
      "Ġrather": 1710,
      "gether": 1711,
      "Ġmerchant": 1712,
      "Ġclear": 1713,
      "Ġadm": 1714,
      "Ġdagger": 1715,
      "evan": 1716,
      "Scene": 1717,
      "):": 1718,
      "AL": 1719,
      "BENJEN": 1720,
      "CE": 1721,
      "It": 1722,
      "She": 1723,
      "To": 1724,
      "Walder": 1725,
      "YA": 1726,
      "aid": 1727,
      "bes": 1728,
      "ec": 1729,
      "finger": 1730,
      "gen": 1731,
      "ken": 1732,
      "ock": 1733,
      "pit": 1734,
      "ually": 1735,
      "ween": 1736,
      "Ġteach": 1737,
      "Ġwinter": 1738,
      "ors": 1739,
      "Ġmad": 1740,
      "Ġmorn": 1741,
      "Ġbra": 1742,
      "Ġborn": 1743,
      "Ġyet": 1744,
      "ĠSouth": 1745,
      "Ġtogether": 1746,
      "Ġfuck": 1747,
      "Ġdark": 1748,
      "Ġdanc": 1749,
      "Ġcount": 1750,
      "ither": 1751,
      "ĠLe": 1752,
      "aster": 1753,
      "Ġgave": 1754,
      "rid": 1755,
      "ĠMer": 1756,
      "Ġsto": 1757,
      "Ġwhores": 1758,
      "ĠNe": 1759,
      "ĠNarrow": 1760,
      "Ġsec": 1761,
      "iful": 1762,
      "ĠPerhaps": 1763,
      "ĠDoes": 1764,
      "Ġleast": 1765,
      "ĠRed": 1766,
      "Ġcomm": 1767,
      "Ġgetting": 1768,
      "Ġrule": 1769,
      "Ġothers": 1770,
      "osed": 1771,
      "ĠSea": 1772,
      "Ġbetween": 1773,
      "Ġstart": 1774,
      "Ġconvers": 1775,
      "Ġ10": 1776,
      "Ġholding": 1777,
      "Ġmarry": 1778,
      "Ġacross": 1779,
      "ody": 1780,
      "ĠMoon": 1781,
      "ILLYRIO": 1782,
      "Ġmerc": 1783,
      "Ġdaughter": 1784,
      "ĠHugh": 1785,
      "Ġknife": 1786,
      "Ġdiffer": 1787,
      "Ġmorning": 1788,
      "Ġconversation": 1789,
      "But": 1790,
      "HAL": 1791,
      "Now": 1792,
      "Sandor": 1793,
      "Wine": 1794,
      "back": 1795,
      "ched": 1796,
      "ek": 1797,
      "wh": 1798,
      "word": 1799,
      "ĠRos": 1800,
      "Ġtour": 1801,
      "Ġtrou": 1802,
      "Ġtaking": 1803,
      "Ġwr": 1804,
      "Ġwat": 1805,
      "Ġsil": 1806,
      "ret": 1807,
      "Ġmon": 1808,
      "Ġmom": 1809,
      "Ġmoney": 1810,
      "Ġbir": 1811,
      "Ġhard": 1812,
      "Ġls": 1813,
      "Ġlisten": 1814,
      "Ġdou": 1815,
      "Ġdam": 1816,
      "Ġcor": 1817,
      "Ġcow": 1818,
      "Ġcau": 1819,
      "Ġoath": 1820,
      "ĠTake": 1821,
      "tering": 1822,
      "Ġheal": 1823,
      "Ġbell": 1824,
      "Ġpiss": 1825,
      "Ġpart": 1826,
      "ĠAny": 1827,
      "ĠHound": 1828,
      "Ġkhal": 1829,
      "Ġknock": 1830,
      "Ġstri": 1831,
      "Ġstands": 1832,
      "ĠKnight": 1833,
      "ĠGhost": 1834,
      "Ġres": 1835,
      "Ġdear": 1836,
      "ĠFather": 1837,
      "endry": 1838,
      "Ġblade": 1839,
      "Ġwhole": 1840,
      "They": 1841,
      "Ġlost": 1842,
      "ickon": 1843,
      "Ġworth": 1844,
      "Ġvi": 1845,
      "Ġfeel": 1846,
      "Ġscar": 1847,
      "Ġclim": 1848,
      "Ġexpect": 1849,
      "Ġpret": 1850,
      "Ġhappy": 1851,
      "Ġappears": 1852,
      "Ġhund": 1853,
      "Ġholds": 1854,
      "Ġdisc": 1855,
      "ROBB": 1856,
      "ize": 1857,
      "Ġchest": 1858,
      "Ġwoods": 1859,
      "Ġmeeting": 1860,
      "Ġenemies": 1861,
      "Ġdefend": 1862,
      "pital": 1863,
      "Ġdancing": 1864,
      "ĠMerchant": 1865,
      "If": 1866,
      "ND": 1867,
      "OD": 1868,
      "THE": 1869,
      "Your": 1870,
      "body": 1871,
      "ger": 1872,
      "look": 1873,
      "nam": 1874,
      "vent": 1875,
      "war": 1876,
      "wood": 1877,
      "Ġ[": 1878,
      "Ġtonight": 1879,
      "hen": 1880,
      "Ġwound": 1881,
      "Ġwater": 1882,
      "ange": 1883,
      "ished": 1884,
      "isper": 1885,
      "reet": 1886,
      "Ġmil": 1887,
      "Ġball": 1888,
      "Ġbus": 1889,
      "Ġhill": 1890,
      "Ġhate": 1891,
      "Ġlarge": 1892,
      "Ġdress": 1893,
      "Ġduty": 1894,
      "Ġdrun": 1895,
      "tered": 1896,
      "Ġgri": 1897,
      "Ġgift": 1898,
      "ĠWester": 1899,
      "Ġpi": 1900,
      "Ġper": 1901,
      "Ġpay": 1902,
      "Ġpur": 1903,
      "Ġpers": 1904,
      "Ġpain": 1905,
      "Ġpleas": 1906,
      "Ġpower": 1907,
      "ĠMen": 1908,
      "ĠMount": 1909,
      "ĠYoren": 1910,
      "ĠHer": 1911,
      "Ġkiss": 1912,
      "adow": 1913,
      "alm": 1914,
      "Ġstra": 1915,
      "Ġstories": 1916,
      "Ġforget": 1917,
      "ider": 1918,
      "utiful": 1919,
      "ĠCATELYN": 1920,
      "Ġref": 1921,
      "Ġliar": 1922,
      "Ġlives": 1923,
      "ĠJON": 1924,
      "ĠJeor": 1925,
      "Ġneck": 1926,
      "ently": 1927,
      "Ġwear": 1928,
      "ĠPie": 1929,
      "Ġleaving": 1930,
      "ĠOf": 1931,
      "ĠOut": 1932,
      "Ġsav": 1933,
      "Ġsave": 1934,
      "Ġbless": 1935,
      "Ġlot": 1936,
      "ĠEven": 1937,
      "Ġhears": 1938,
      "Ġsons": 1939,
      "Ġfeet": 1940,
      "Ġtelling": 1941,
      "Ġwarm": 1942,
      "Ġheads": 1943,
      "Ġjustice": 1944,
      "Ġhorseback": 1945,
      "Ġslaves": 1946,
      "Ġletter": 1947,
      "Ġprince": 1948,
      "ĠMago": 1949,
      "Ġpoor": 1950,
      "Ġspeaks": 1951,
      "ured": 1952,
      "ages": 1953,
      "Ġchamber": 1954,
      "odor": 1955,
      "Ġsuppose": 1956,
      "Ġcrown": 1957,
      "Ġ20": 1958,
      "Ġtreason": 1959,
      "Ġscreams": 1960,
      "Ġmatter": 1961,
      "ĠPrince": 1962,
      "ĠRangers": 1963,
      "Ġquickly": 1964,
      "Ġcrimes": 1965,
      "Ġwitch": 1966,
      "ĠLittlefinger": 1967,
      "Ġnamed": 1968,
      "Ġmercy": 1969,
      "Ġtournam": 1970,
      "Ġmoment": 1971,
      "Ġcoward": 1972,
      "Ġtournament": 1973,
      ".\"": 1974,
      "EP": 1975,
      "aes": 1976,
      "aim": 1977,
      "ail": 1978,
      "cl": 1979,
      "lay": 1980,
      "oor": 1981,
      "ple": 1982,
      "rant": 1983,
      "sing": 1984,
      "ud": 1985,
      "Ġ3": 1986,
      "Ġtast": 1987,
      "Ġtree": 1988,
      "onna": 1989,
      "Ġsight": 1990,
      "Ġsong": 1991,
      "Ġsort": 1992,
      "Ġbab": 1993,
      "Ġhid": 1994,
      "Ġhour": 1995,
      "ingers": 1996,
      "lls": 1997,
      "ĠSuch": 1998,
      "ĠSepta": 1999,
      "ĠSword": 2000,
      "Ġfine": 2001,
      "esc": 2002,
      "Ġcell": 2003,
      "Ġobe": 2004,
      "edge": 2005,
      "terly": 2006,
      "asar": 2007,
      "Ġgonna": 2008,
      "Ġbeast": 2009,
      "Ġinst": 2010,
      "elcome": 2011,
      "ĠHere": 2012,
      "ardon": 2013,
      "Ġones": 2014,
      "Ġmeans": 2015,
      "Ġwhom": 2016,
      "ĠKill": 2017,
      "thor": 2018,
      "yrie": 2019,
      "Ġlikes": 2020,
      "thern": 2021,
      "Ġsea": 2022,
      "ĠJust": 2023,
      "allion": 2024,
      "cept": 2025,
      "ertain": 2026,
      "Ġwhatever": 2027,
      "Ġdeep": 2028,
      "Ġchant": 2029,
      "Ġseeing": 2030,
      "range": 2031,
      "ĠVaes": 2032,
      "Ġroad": 2033,
      "Ġbutcher": 2034,
      "ctly": 2035,
      "Ġloved": 2036,
      "ĠEn": 2037,
      "ĠEyrie": 2038,
      "Ġworse": 2039,
      "Ġsomewhere": 2040,
      "Ġfeast": 2041,
      "ĠGrand": 2042,
      "ĠPyp": 2043,
      "ĠUncle": 2044,
      "Ġlords": 2045,
      "icing": 2046,
      "Ġrap": 2047,
      "Ġfinds": 2048,
      "Ġstars": 2049,
      "Ġeye": 2050,
      "Ġfriends": 2051,
      "Ġmarch": 2052,
      "Ġcarrying": 2053,
      "ISOD": 2054,
      "Ġfoot": 2055,
      "Ġsupposed": 2056,
      "ments": 2057,
      "What": 2058,
      "While": 2059,
      "ĠBecause": 2060,
      "Ġlaughing": 2061,
      "Ġbreak": 2062,
      "Ġgrabs": 2063,
      "Ġorders": 2064,
      "ĠRealm": 2065,
      "Ġlouder": 2066,
      "Ġfunny": 2067,
      "Ġbeautiful": 2068,
      "Ġeggs": 2069,
      "Ġbody": 2070,
      "Ġdifferent": 2071,
      "Ġmonth": 2072,
      "Ġbelly": 2073,
      "Ġpretty": 2074,
      "ĠWesteros": 2075,
      "ĠMountain": 2076,
      "EPISOD": 2077,
      "EPISODE": 2078,
      "Do": 2079,
      "DAENERYS": 2080,
      "GO": 2081,
      "Gendry": 2082,
      "Knight": 2083,
      "Kevan": 2084,
      "My": 2085,
      "Not": 2086,
      "OR": 2087,
      "Rickon": 2088,
      "YCE": 2089,
      "cer": 2090,
      "ey": 2091,
      "fter": 2092,
      "ged": 2093,
      "og": 2094,
      "oves": 2095,
      "unt": 2096,
      "yah": 2097,
      "Ġ'": 2098,
      "Ġent": 2099,
      "ĠRobin": 2100,
      "Ġesc": 2101,
      "iness": 2102,
      "Ġwed": 2103,
      "Ġset": 2104,
      "Ġmouth": 2105,
      "Ġmaking": 2106,
      "Ġmaster": 2107,
      "Ġbar": 2108,
      "Ġbows": 2109,
      "ats": 2110,
      "ates": 2111,
      "llyrio": 2112,
      "ĠShagga": 2113,
      "Ġlow": 2114,
      "Ġline": 2115,
      "Ġluck": 2116,
      "Ġlaw": 2117,
      "Ġlying": 2118,
      "Ġfive": 2119,
      "Ġfought": 2120,
      "Ġdist": 2121,
      "Ġdream": 2122,
      "Ġcatch": 2123,
      "ition": 2124,
      "ities": 2125,
      "ĠTom": 2126,
      "ĠTrant": 2127,
      "noc": 2128,
      "ĠStay": 2129,
      "Ġthrow": 2130,
      "omed": 2131,
      "Ġgather": 2132,
      "Ġgame": 2133,
      "ĠWas": 2134,
      "ĠWill": 2135,
      "ĠBring": 2136,
      "Ġpack": 2137,
      "Ġins": 2138,
      "Ġint": 2139,
      "Ġinv": 2140,
      "ĠAm": 2141,
      "ĠAye": 2142,
      "road": 2143,
      "rotect": 2144,
      "ĠHalf": 2145,
      "ĠHyah": 2146,
      "Ġkings": 2147,
      "ĠDRO": 2148,
      "ĠDAENERYS": 2149,
      "ĠDany": 2150,
      "aker": 2151,
      "oose": 2152,
      "Ġfore": 2153,
      "ghten": 2154,
      "ĠCl": 2155,
      "ĠCou": 2156,
      "Ġreb": 2157,
      "Ġred": 2158,
      "Ġrequ": 2159,
      "Ġlik": 2160,
      "ants": 2161,
      "ddenly": 2162,
      "Ġshow": 2163,
      "Ġshort": 2164,
      "ention": 2165,
      "Ġleg": 2166,
      "ĠOsha": 2167,
      "Ġswing": 2168,
      "Ġswore": 2169,
      "ends": 2170,
      "Ġupon": 2171,
      "ĠBaelor": 2172,
      "Ġrode": 2173,
      "Ġsummer": 2174,
      "iew": 2175,
      "ired": 2176,
      "Ġkilling": 2177,
      "ĠGold": 2178,
      "Ġscout": 2179,
      "Ġarms": 2180,
      "olves": 2181,
      "Ġcouldn": 2182,
      "Ġquite": 2183,
      "pses": 2184,
      "ĠSee": 2185,
      "ĠSoon": 2186,
      "ĠCasterly": 2187,
      "Ġserious": 2188,
      "Ġtribes": 2189,
      "Ġcock": 2190,
      "Ġputs": 2191,
      "Ġcarry": 2192,
      "Ġcapital": 2193,
      "Ġfollows": 2194,
      "Ġcripp": 2195,
      "Ġclean": 2196,
      "Ġbuild": 2197,
      "Ġwalls": 2198,
      "Ġattacked": 2199,
      "Rodrick": 2200,
      "Ġmaybe": 2201,
      "Ġdeser": 2202,
      "Ġwindow": 2203,
      "Ġarrives": 2204,
      "Mordane": 2205,
      "Ġwooden": 2206,
      "ARED": 2207,
      "eryn": 2208,
      "Ġmatters": 2209,
      "Ġpromise": 2210,
      "Ġpromised": 2211,
      "Ġknights": 2212,
      "Ġeating": 2213,
      "ĠRanger": 2214,
      "Ġmessage": 2215,
      "That": 2216,
      "ĠRock": 2217,
      "Ġdraws": 2218,
      "Ġbannermen": 2219,
      "Ġnorthern": 2220,
      "Ġchoice": 2221,
      "Ġconfess": 2222,
      "Ġtrouble": 2223,
      "Ġdoubt": 2224,
      "Ġdamn": 2225,
      "Ġhundred": 2226,
      "warf": 2227,
      "Ġballs": 2228,
      "Ġperson": 2229,
      "rotector": 2230,
      "ĠDROGO": 2231,
      "Every": 2232,
      "Hot": 2233,
      "Lanc": 2234,
      "OU": 2235,
      "Ser": 2236,
      "WILL": 2237,
      "When": 2238,
      "ago": 2239,
      "cc": 2240,
      "cah": 2241,
      "den": 2242,
      "ib": 2243,
      "ix": 2244,
      "ike": 2245,
      "ips": 2246,
      "ls": 2247,
      "low": 2248,
      "mb": 2249,
      "ner": 2250,
      "oak": 2251,
      "pl": 2252,
      "pr": 2253,
      "rack": 2254,
      "swer": 2255,
      "ten": 2256,
      "wy": 2257,
      "Ġir": 2258,
      "Ġtit": 2259,
      "Ġtry": 2260,
      "Ġaff": 2261,
      "ining": 2262,
      "oust": 2263,
      "erous": 2264,
      "Ġwent": 2265,
      "Ġsound": 2266,
      "anos": 2267,
      "Ġmid": 2268,
      "Ġhost": 2269,
      "ating": 2270,
      "Ġyield": 2271,
      "ĠSly": 2272,
      "ĠSomet": 2273,
      "Ġlay": 2274,
      "Ġland": 2275,
      "Ġtop": 2276,
      "Ġtomor": 2277,
      "Ġfell": 2278,
      "Ġdies": 2279,
      "Ġcra": 2280,
      "Ġcertain": 2281,
      "ĠTully": 2282,
      "Ġheld": 2283,
      "Ġgre": 2284,
      "ĠWalder": 2285,
      "ĠWildling": 2286,
      "ĠWILL": 2287,
      "Ġbecome": 2288,
      "Ġpie": 2289,
      "Ġpup": 2290,
      "Ġpass": 2291,
      "Ġperhaps": 2292,
      "Ġpulls": 2293,
      "Ġpaid": 2294,
      "Ġinnoc": 2295,
      "els": 2296,
      "elt": 2297,
      "ĠAR": 2298,
      "ĠAh": 2299,
      "ĠMe": 2300,
      "ĠHmm": 2301,
      "ĠDrink": 2302,
      "Ġstat": 2303,
      "Ġstory": 2304,
      "Ġyourselves": 2305,
      "Ġwhisper": 2306,
      "veral": 2307,
      "ute": 2308,
      "amb": 2309,
      "------": 2310,
      "Ġeight": 2311,
      "ĠCERSEI": 2312,
      "Ġshit": 2313,
      "Ġshare": 2314,
      "Ġshield": 2315,
      "Ġaren": 2316,
      "Ġanswer": 2317,
      "Ġallow": 2318,
      "ĠPe": 2319,
      "Ġdefe": 2320,
      "ĠOthor": 2321,
      "ĠNothing": 2322,
      "Ġchange": 2323,
      "ĠFrom": 2324,
      "Ġsaf": 2325,
      "Ġsafe": 2326,
      "Ġalong": 2327,
      "ĠVery": 2328,
      "Ġable": 2329,
      "Ġjoin": 2330,
      "Ġjoust": 2331,
      "Ġspo": 2332,
      "Ġfeed": 2333,
      "Ġboar": 2334,
      "gging": 2335,
      "ung": 2336,
      "used": 2337,
      "Ġheading": 2338,
      "Ġclos": 2339,
      "ĠForgive": 2340,
      "Ġbelow": 2341,
      "Ġpract": 2342,
      "Ġprison": 2343,
      "Ġprincess": 2344,
      "Ġtalks": 2345,
      "Ġfrighten": 2346,
      "Ġpoin": 2347,
      "Ġposs": 2348,
      "istance": 2349,
      "igil": 2350,
      "Ġconcer": 2351,
      "Ġsteal": 2352,
      "Ġstewards": 2353,
      "Ġtries": 2354,
      "Ġtried": 2355,
      "Ġgiving": 2356,
      "ĠKingsroad": 2357,
      "Ġnews": 2358,
      "hered": 2359,
      "Ġhelm": 2360,
      "ĠShh": 2361,
      "ĠMother": 2362,
      "Ġburned": 2363,
      "Ġskin": 2364,
      "Ġcrowd": 2365,
      "Ġbreast": 2366,
      "oint": 2367,
      "Ġdaughters": 2368,
      "Ġsleeping": 2369,
      "Ġpresent": 2370,
      "Ġsaddle": 2371,
      "Ġcontin": 2372,
      "Ġlearned": 2373,
      "Ġloyalty": 2374,
      "Ġdungeon": 2375,
      "Ġdungeons": 2376,
      "Ġchair": 2377,
      "Ġcaptured": 2378,
      "Ġinterest": 2379,
      "ĠROBB": 2380,
      "Ġwildlings": 2381,
      "Ġstopped": 2382,
      "THEON": 2383,
      "Ġbusiness": 2384,
      "Ġdrunk": 2385,
      "Ġpleasure": 2386,
      "Ġtaste": 2387,
      "ĠCouncil": 2388,
      "Lancel": 2389,
      "ĠSlynt": 2390,
      "Ġtomorrow": 2391,
      "AS": 2392,
      "Go": 2393,
      "Guard": 2394,
      "Mago": 2395,
      "UW": 2396,
      "Wildling": 2397,
      "by": 2398,
      "bts": 2399,
      "fully": 2400,
      "guard": 2401,
      "ho": 2402,
      "iar": 2403,
      "iet": 2404,
      "most": 2405,
      "over": 2406,
      "pts": 2407,
      "peak": 2408,
      "use": 2409,
      "Ġ4": 2410,
      "Ġ5": 2411,
      "Ġ:": 2412,
      "Ġran": 2413,
      "Ġtau": 2414,
      "eren": 2415,
      "ered": 2416,
      "ony": 2417,
      "Ġwise": 2418,
      "Ġwelcome": 2419,
      "Ġwolves": 2420,
      "Ġweren": 2421,
      "Ġ--": 2422,
      "Ġsn": 2423,
      "Ġsim": 2424,
      "Ġsits": 2425,
      "Ġsense": 2426,
      "anqu": 2427,
      "Ġmus": 2428,
      "Ġbi": 2429,
      "Ġbes": 2430,
      "Ġbal": 2431,
      "Ġbath": 2432,
      "Ġbig": 2433,
      "Ġhord": 2434,
      "Ġhits": 2435,
      "Ġharm": 2436,
      "atis": 2437,
      "ingly": 2438,
      "enger": 2439,
      "ĠSend": 2440,
      "ĠShae": 2441,
      "Ġlate": 2442,
      "Ġfle": 2443,
      "Ġfly": 2444,
      "Ġfast": 2445,
      "Ġfaces": 2446,
      "Ġfingers": 2447,
      "Ġden": 2448,
      "Ġdang": 2449,
      "Ġdance": 2450,
      "Ġdwarf": 2451,
      "Ġcast": 2452,
      "ĠToo": 2453,
      "ĠTwin": 2454,
      "ĠTHE": 2455,
      "Ġheir": 2456,
      "ask": 2457,
      "ommy": 2458,
      "ĠWild": 2459,
      "ĠBra": 2460,
      "Ġpu": 2461,
      "Ġpar": 2462,
      "Ġpat": 2463,
      "Ġpays": 2464,
      "Ġpardon": 2465,
      "Ġinn": 2466,
      "ĠAerys": 2467,
      "ĠHodor": 2468,
      "Ġkick": 2469,
      "Ġstick": 2470,
      "Ġstallion": 2471,
      "aked": 2472,
      "iding": 2473,
      "ides": 2474,
      "ĠKHAL": 2475,
      "ĠNever": 2476,
      "Ġnice": 2477,
      "Ġnaked": 2478,
      "Ġug": 2479,
      "Ġeither": 2480,
      "Ġdog": 2481,
      "Ġready": 2482,
      "Ġaside": 2483,
      "Ġlie": 2484,
      "Ġlight": 2485,
      "antly": 2486,
      "Ġseveral": 2487,
      "uring": 2488,
      "haz": 2489,
      "ĠPut": 2490,
      "ĠProtector": 2491,
      "Ġlegs": 2492,
      "Ġdemand": 2493,
      "ĠOur": 2494,
      "Ġswings": 2495,
      "Ġchance": 2496,
      "ended": 2497,
      "Ġalmost": 2498,
      "ĠRight": 2499,
      "ĠRakharo": 2500,
      "ains": 2501,
      "Ġmoving": 2502,
      "Ġarrow": 2503,
      "Ġwhose": 2504,
      "Ġje": 2505,
      "Ġworry": 2506,
      "Ġawait": 2507,
      "Ġvow": 2508,
      "Ġview": 2509,
      "ouses": 2510,
      "Ġagree": 2511,
      "ably": 2512,
      "Ġplaces": 2513,
      "Ġquest": 2514,
      "Ġclaim": 2515,
      "Ġslow": 2516,
      "ROS": 2517,
      "ĠIslands": 2518,
      "Ġriders": 2519,
      "Ġsmell": 2520,
      "Ġsisters": 2521,
      "ations": 2522,
      "Ġcuts": 2523,
      "Ġrises": 2524,
      "Ġgives": 2525,
      "Ġmarried": 2526,
      "Ġgreatest": 2527,
      "Ġfloor": 2528,
      "ĠMove": 2529,
      "Ġimag": 2530,
      "Ġglory": 2531,
      "Ġapproach": 2532,
      "Ġattacks": 2533,
      "Ġsky": 2534,
      "Ġdrinks": 2535,
      "Ġopens": 2536,
      "ĠEveryone": 2537,
      "Ġprice": 2538,
      "Ġcompany": 2539,
      "Ġthousands": 2540,
      "Ġarrive": 2541,
      "Ġadv": 2542,
      "ĠHuh": 2543,
      "ĠPrincess": 2544,
      "Ġfalls": 2545,
      "Ġtrack": 2546,
      "Ġpicks": 2547,
      "Ġmurdered": 2548,
      "ING": 2549,
      "Ġrecru": 2550,
      "Ġcourtes": 2551,
      "Ġhunting": 2552,
      "Ġaccom": 2553,
      "Ġdrops": 2554,
      "Ġcatches": 2555,
      "Ġcrypt": 2556,
      "Ġeasier": 2557,
      "ĠROBERT": 2558,
      "Ġsurpr": 2559,
      "Ġguest": 2560,
      "Ġjob": 2561,
      "Ġservice": 2562,
      "Ġmadness": 2563,
      "Ġbrave": 2564,
      "ĠLeave": 2565,
      "Ġscared": 2566,
      "Ġsavages": 2567,
      "Ġchanting": 2568,
      "Ġwedding": 2569,
      "Ġlucky": 2570,
      "omeday": 2571,
      "Ġiron": 2572,
      "ĠARYA": 2573,
      "Ġprisoner": 2574,
      "UWIN": 2575,
      "Ġhorde": 2576,
      "ĠTwins": 2577,
      "En": 2578,
      "GARED": 2579,
      "Janos": 2580,
      "Night": 2581,
      "Othe": 2582,
      "So": 2583,
      "Su": 2584,
      "Sold": 2585,
      "Shagga": 2586,
      "aver": 2587,
      "bed": 2588,
      "bye": 2589,
      "bably": 2590,
      "cel": 2591,
      "gon": 2592,
      "gain": 2593,
      "hood": 2594,
      "ia": 2595,
      "iers": 2596,
      "iot": 2597,
      "ible": 2598,
      "ience": 2599,
      "king": 2600,
      "mer": 2601,
      "ole": 2602,
      "shes": 2603,
      "te": 2604,
      "ues": 2605,
      "umber": 2606,
      "zen": 2607,
      "Ġq": 2608,
      "Ġid": 2609,
      "ĠRodrik": 2610,
      "Ġedge": 2611,
      "Ġtw": 2612,
      "Ġter": 2613,
      "Ġage": 2614,
      "arb": 2615,
      "arms": 2616,
      "arwy": 2617,
      "ones": 2618,
      "oned": 2619,
      "Ġwake": 2620,
      "Ġwakes": 2621,
      "Ġsnow": 2622,
      "Ġsign": 2623,
      "Ġsix": 2624,
      "ork": 2625,
      "read": 2626,
      "Ġmark": 2627,
      "Ġmet": 2628,
      "Ġble": 2629,
      "Ġbanqu": 2630,
      "Ġhom": 2631,
      "Ġhut": 2632,
      "Ġhot": 2633,
      "Ġyear": 2634,
      "ĠSANSA": 2635,
      "Ġlack": 2636,
      "Ġlands": 2637,
      "Ġtoss": 2638,
      "Ġfit": 2639,
      "Ġfood": 2640,
      "Ġfield": 2641,
      "Ġdu": 2642,
      "Ġdel": 2643,
      "Ġcel": 2644,
      "Ġcand": 2645,
      "Ġcold": 2646,
      "Ġcrying": 2647,
      "Ġow": 2648,
      "Ġopp": 2649,
      "ĠTrid": 2650,
      "edle": 2651,
      "ĠLysa": 2652,
      "ĠLhaz": 2653,
      "ĠStone": 2654,
      "Ġthrows": 2655,
      "Ġgrand": 2656,
      "ĠBack": 2657,
      "ĠBoy": 2658,
      "Ġbeat": 2659,
      "Ġbehead": 2660,
      "Ġpun": 2661,
      "Ġpus": 2662,
      "Ġpyre": 2663,
      "Ġinc": 2664,
      "ĠAn": 2665,
      "ĠAss": 2666,
      "ĠMirri": 2667,
      "ĠYarwy": 2668,
      "Ġnods": 2669,
      "alty": 2670,
      "ĠLancel": 2671,
      "Ġonto": 2672,
      "Ġmeat": 2673,
      "Ġstable": 2674,
      "Ġstrange": 2675,
      "Ġfort": 2676,
      "Ġforgive": 2677,
      "ided": 2678,
      "ĠNan": 2679,
      "lyn": 2680,
      "Ġnine": 2681,
      "Ġhaven": 2682,
      "ution": 2683,
      "irt": 2684,
      "iring": 2685,
      "irwood": 2686,
      "Ġevent": 2687,
      "ĠGuard": 2688,
      "ĠGrenn": 2689,
      "ĠCat": 2690,
      "ĠCrows": 2691,
      "Ġlies": 2692,
      "ĠJAIME": 2693,
      "Ġshoo": 2694,
      "Ġshout": 2695,
      "Ġshame": 2696,
      "Ġshits": 2697,
      "Ġship": 2698,
      "hai": 2699,
      "Ġweap": 2700,
      "ĠPiss": 2701,
      "ĠDoor": 2702,
      "orms": 2703,
      "Ġdebts": 2704,
      "Ġrich": 2705,
      "Ġrider": 2706,
      "ending": 2707,
      "Ġsail": 2708,
      "iles": 2709,
      "ĠRhae": 2710,
      "ĠVal": 2711,
      "ĠWeirwood": 2712,
      "Ġlooked": 2713,
      "Ġblue": 2714,
      "Ġrot": 2715,
      "Ġrock": 2716,
      "ieves": 2717,
      "quer": 2718,
      "opul": 2719,
      "Ġspear": 2720,
      "cted": 2721,
      "Ġenjoy": 2722,
      "ĠEgen": 2723,
      "Ġgoodbye": 2724,
      "Ġvows": 2725,
      "ĠâĢĺ": 2726,
      "Ġtells": 2727,
      "Ġthinking": 2728,
      "Ġrightful": 2729,
      "Ġwarri": 2730,
      "ush": 2731,
      "ĠUn": 2732,
      "ĠUntil": 2733,
      "Ġquar": 2734,
      "Ġclot": 2735,
      "Ġexits": 2736,
      "Ġexact": 2737,
      "Ġslaugh": 2738,
      "Ġprov": 2739,
      "Ġproper": 2740,
      "ĠKhalasar": 2741,
      "Ġstarted": 2742,
      "Ġprepar": 2743,
      "Ġcalls": 2744,
      "Ġpoison": 2745,
      "Ġsteward": 2746,
      "Ġkeeps": 2747,
      "Ġtribe": 2748,
      "Ġcoll": 2749,
      "Ġcover": 2750,
      "Ġmarches": 2751,
      "Ġhappens": 2752,
      "Ġhappening": 2753,
      "ĠKingsguard": 2754,
      "SEL": 2755,
      "Ġknee": 2756,
      "Ġtraining": 2757,
      "ĠShadow": 2758,
      "Ġflies": 2759,
      "Ġsupper": 2760,
      "ĠBlood": 2761,
      "Ġcoun": 2762,
      "Ġburning": 2763,
      "Ġwatching": 2764,
      "Ġcomple": 2765,
      "ized": 2766,
      "Ġsending": 2767,
      "Ġladies": 2768,
      "ĠGreen": 2769,
      "ARYA": 2770,
      "Ġwaiting": 2771,
      "Ġgrass": 2772,
      "Ġleads": 2773,
      "Ġcrossing": 2774,
      "Ġplaying": 2775,
      "parts": 2776,
      "Ġpresence": 2777,
      "Ste": 2778,
      "Ġfinal": 2779,
      "Ġenemy": 2780,
      "----------------------------------------": 2781,
      "REY": 2782,
      "Ġlearn": 2783,
      "Ġimport": 2784,
      "Ġloud": 2785,
      "Ġbeauty": 2786,
      "ĠMaybe": 2787,
      "Ġeasy": 2788,
      "ĠRiverlands": 2789,
      "Ġsurround": 2790,
      "Ġsoldiers": 2791,
      "Ġdarkness": 2792,
      "ĠNeedle": 2793,
      "Ġsecond": 2794,
      "Ġbirds": 2795,
      "Ġcorpses": 2796,
      "Ġcaught": 2797,
      "Ġcausing": 2798,
      "Ġhealth": 2799,
      "Ġrespect": 2800,
      "Ġvict": 2801,
      "looking": 2802,
      "Ġpurse": 2803,
      "Ġpowerful": 2804,
      "Ġkisses": 2805,
      "Ġstraight": 2806,
      "layer": 2807,
      "Ġbaby": 2808,
      "Ġhours": 2809,
      "Ġobey": 2810,
      "ĠEnough": 2811,
      "Ġrebell": 2812,
      "Ġlikely": 2813,
      "Ġcripple": 2814,
      "Ġbuilders": 2815,
      "Ġtitles": 2816,
      "ĠSometimes": 2817,
      "Ġpieces": 2818,
      "Ġinnocent": 2819,
      "Ġstatue": 2820,
      "ĠPeople": 2821,
      "Ġsafety": 2822,
      "ASSEL": 2823,
      "Ġtaught": 2824,
      "Ġbigger": 2825,
      "Ġbeside": 2826,
      "Ġcastles": 2827,
      "ĠWildlings": 2828,
      "Ġugly": 2829,
      "Ġimagine": 2830,
      "Othell": 2831,
      "Soldier": 2832,
      "Ġidiot": 2833,
      "Ġbleed": 2834,
      "Ġbanquet": 2835,
      "Ġtosses": 2836,
      "ĠTrident": 2837,
      "ĠLhazar": 2838,
      "ĠAsshai": 2839,
      "ĠYarwyck": 2840,
      "Ġclothes": 2841,
      ",\"": 2842,
      ".)": 2843,
      "Both": 2844,
      "FF": 2845,
      "How": 2846,
      "KHAL": 2847,
      "Lan": 2848,
      "Lommy": 2849,
      "LUWIN": 2850,
      "Mess": 2851,
      "Meryn": 2852,
      "On": 2853,
      "Old": 2854,
      "OFF": 2855,
      "URE": 2856,
      "Vardis": 2857,
      "ax": 2858,
      "br": 2859,
      "bho": 2860,
      "ced": 2861,
      "com": 2862,
      "cony": 2863,
      "ead": 2864,
      "fast": 2865,
      "form": 2866,
      "father": 2867,
      "gn": 2868,
      "gar": 2869,
      "gth": 2870,
      "hands": 2871,
      "lf": 2872,
      "ming": 2873,
      "oved": 2874,
      "pion": 2875,
      "ray": 2876,
      "sc": 2877,
      "set": 2878,
      "vil": 2879,
      "wise": 2880,
      "yann": 2881,
      "Ġill": 2882,
      "Ġide": 2883,
      "Ġtem": 2884,
      "Ġtears": 2885,
      "Ġap": 2886,
      "Ġadd": 2887,
      "ines": 2888,
      "oured": 2889,
      "ering": 2890,
      "Ġwi": 2891,
      "Ġwis": 2892,
      "Ġwen": 2893,
      "Ġsick": 2894,
      "Ġsigil": 2895,
      "Ġsomeday": 2896,
      "orrow": 2897,
      "orts": 2898,
      "isk": 2899,
      "res": 2900,
      "reets": 2901,
      "Ġmel": 2902,
      "Ġmut": 2903,
      "Ġmillion": 2904,
      "Ġbri": 2905,
      "Ġbreat": 2906,
      "Ġbound": 2907,
      "Ġbraid": 2908,
      "Ġbrid": 2909,
      "Ġbones": 2910,
      "Ġhung": 2911,
      "Ġlamb": 2912,
      "Ġtown": 2913,
      "Ġfre": 2914,
      "Ġfour": 2915,
      "Ġfact": 2916,
      "Ġfav": 2917,
      "Ġfair": 2918,
      "Ġdare": 2919,
      "Ġduck": 2920,
      "Ġdistance": 2921,
      "ĠIllyrio": 2922,
      "ĠIlyn": 2923,
      "Ġcup": 2924,
      "Ġcities": 2925,
      "Ġocc": 2926,
      "ĠTime": 2927,
      "ĠTrust": 2928,
      "ĠListen": 2929,
      "ĠLove": 2930,
      "ĠLiar": 2931,
      "Ġheat": 2932,
      "Ġhell": 2933,
      "Ġhells": 2934,
      "asing": 2935,
      "asses": 2936,
      "Ġthreat": 2937,
      "Ġthough": 2938,
      "Ġthieves": 2939,
      "Ġgrow": 2940,
      "Ġgate": 2941,
      "ĠWord": 2942,
      "ĠWould": 2943,
      "ĠBro": 2944,
      "ĠBet": 2945,
      "ĠBrand": 2946,
      "ĠBrack": 2947,
      "Ġbegging": 2948,
      "Ġph": 2949,
      "Ġpos": 2950,
      "Ġpull": 2951,
      "Ġpasses": 2952,
      "ĠAND": 2953,
      "ĠAfter": 2954,
      "ĠMake": 2955,
      "ĠMop": 2956,
      "ĠMot": 2957,
      "Ġnoble": 2958,
      "ĠHOU": 2959,
      "arden": 2960,
      "ĠThese": 2961,
      "ĠLands": 2962,
      "ills": 2963,
      "Ġstair": 2964,
      "Ġstreet": 2965,
      "owing": 2966,
      "ĠKevan": 2967,
      "stit": 2968,
      "ĠNone": 2969,
      "ayne": 2970,
      "Ġuncle": 2971,
      "ĠGl": 2972,
      "ĠGreat": 2973,
      "ĠGreatjon": 2974,
      "ĠCrow": 2975,
      "ĠCare": 2976,
      "ĠCity": 2977,
      "ĠCRE": 2978,
      "Ġreg": 2979,
      "Ġrece": 2980,
      "Ġlied": 2981,
      "Ġliving": 2982,
      "Ġlived": 2983,
      "outher": 2984,
      "Ġseat": 2985,
      "Ġseize": 2986,
      "ching": 2987,
      "rage": 2988,
      "urs": 2989,
      "Ġshar": 2990,
      "Ġweek": 2991,
      "ĠThree": 2992,
      "ĠThose": 2993,
      "Ġann": 2994,
      "ĠPayne": 2995,
      "Ġdeparts": 2996,
      "Ġsworn": 2997,
      "Ġchoose": 2998,
      "ĠWhatever": 2999,
      "ĠFine": 3000,
      "--------------": 3001,
      "Ġriver": 3002,
      "roup": 3003,
      "iling": 3004,
      "Ġabove": 3005,
      "Ġsuc": 3006,
      "Ġsuff": 3007,
      "Ġsumm": 3008,
      "Ġsuddenly": 3009,
      "iege": 3010,
      "Ġmoon": 3011,
      "Ġspend": 3012,
      "Ġspec": 3013,
      "Ġenter": 3014,
      "Ġloves": 3015,
      "Ġlots": 3016,
      "ĠEx": 3017,
      "Ġworst": 3018,
      "Ġrules": 3019,
      "Ġrumor": 3020,
      "Ġrushes": 3021,
      "Ġfealty": 3022,
      "gged": 3023,
      "unch": 3024,
      "Ġarmies": 3025,
      "Ġkingdoms": 3026,
      "Ġwars": 3027,
      "Ġwarned": 3028,
      "Ġquiet": 3029,
      "Ġtruly": 3030,
      "Ġthank": 3031,
      "Ġbetray": 3032,
      "Ġext": 3033,
      "Ġexec": 3034,
      "ices": 3035,
      "icul": 3036,
      "Ġraise": 3037,
      "Ġprobably": 3038,
      "haegen": 3039,
      "Ġserving": 3040,
      "Ġserved": 3041,
      "ROYCE": 3042,
      "Ġfights": 3043,
      "ĠIsn": 3044,
      "ATURE": 3045,
      "Ġappoint": 3046,
      "Ġsmart": 3047,
      "Ġsmiles": 3048,
      "Ġolder": 3049,
      "Ġasking": 3050,
      "ĠQotho": 3051,
      "Ġrunning": 3052,
      "Ġtrial": 3053,
      "Ġtrick": 3054,
      "aged": 3055,
      "Ġ100": 3056,
      "Ġturned": 3057,
      "Ġattem": 3058,
      "Ġattention": 3059,
      "ĠKingslayer": 3060,
      "Ġchampion": 3061,
      "Ġtrave": 3062,
      "Ġtrained": 3063,
      "Ġgolden": 3064,
      "Ġbedside": 3065,
      "ĠShow": 3066,
      "ĠShould": 3067,
      "ĠSamwell": 3068,
      "Ġuns": 3069,
      "Ġends": 3070,
      "Ġhandsome": 3071,
      "Ġstops": 3072,
      "Ġdirectly": 3073,
      "Ġclever": 3074,
      "Ġbuy": 3075,
      "Ġbury": 3076,
      "Ġglad": 3077,
      "Ġbringing": 3078,
      "Ġskulls": 3079,
      "assin": 3080,
      "ĠBefore": 3081,
      "Ġlaughs": 3082,
      "Ġlads": 3083,
      "Ġtrees": 3084,
      "Ġleading": 3085,
      "umb": 3086,
      "Ġworks": 3087,
      "arming": 3088,
      "Ġsingle": 3089,
      "Ġreport": 3090,
      "Ġfollowed": 3091,
      "Ġreading": 3092,
      "Ġorder": 3093,
      "Ġlesson": 3094,
      "Ġlessons": 3095,
      "Ġcrime": 3096,
      "Ġwitness": 3097,
      "Ġmounts": 3098,
      "Ġbadge": 3099,
      "Ġnames": 3100,
      "Ġbelongs": 3101,
      "Ġtouches": 3102,
      "Ġtouched": 3103,
      "Ġconsp": 3104,
      "ĠRiverrun": 3105,
      "Ġsoldier": 3106,
      "Ġadmir": 3107,
      "Ġadmire": 3108,
      "Tobho": 3109,
      "Ġcountry": 3110,
      "Ġcommon": 3111,
      "Ġcommands": 3112,
      "while": 3113,
      "Ġwrite": 3114,
      "Ġwatches": 3115,
      "Ġwatched": 3116,
      "Ġknocks": 3117,
      "Ġstrike": 3118,
      "Ġworthy": 3119,
      "Ġviol": 3120,
      "Ġmilk": 3121,
      "Ġmiles": 3122,
      "Ġperfe": 3123,
      "Ġrefuse": 3124,
      "Ġblessing": 3125,
      "eyed": 3126,
      "Ġrequest": 3127,
      "Ġpersonal": 3128,
      "Everyone": 3129,
      "oaks": 3130,
      "Ġconcern": 3131,
      "Ġbalcony": 3132,
      "Ġdeny": 3133,
      "Ġdangerous": 3134,
      "Ġslowly": 3135,
      "Ġapproaching": 3136,
      "Ġrecruits": 3137,
      "Ġcourtesy": 3138,
      "Entering": 3139,
      "Ġterri": 3140,
      "Ġfortnight": 3141,
      "ĠValyri": 3142,
      "opulace": 3143,
      "Ġwarrior": 3144,
      "Ġquarters": 3145,
      "Ġexactly": 3146,
      "Ġslaughtered": 3147,
      "ĠGreenhands": 3148,
      "Ġvictory": 3149,
      "ĠLhazareen": 3150,
      "Lannister": 3151,
      "Messenger": 3152,
      "OFFREY": 3153,
      "yanna": 3154,
      "Ġidea": 3155,
      "Ġmelted": 3156,
      "Ġbridge": 3157,
      "Ġhungry": 3158,
      "Ġfavor": 3159,
      "Ġducks": 3160,
      "ĠBetter": 3161,
      "ĠBrandon": 3162,
      "ĠBracken": 3163,
      "ĠMopatis": 3164,
      "ĠMott": 3165,
      "ĠHOUND": 3166,
      "ĠCareful": 3167,
      "ĠCREATURE": 3168,
      "Ġexecution": 3169,
      "\"?": 3170,
      "AH": 3171,
      "Ac": 3172,
      "Are": 3173,
      "After": 3174,
      "Be": 3175,
      "CASSEL": 3176,
      "Hodor": 3177,
      "Illyrio": 3178,
      "Mhaegen": 3179,
      "One": 3180,
      "Se": 3181,
      "Tell": 3182,
      "az": 3183,
      "app": 3184,
      "bat": 3185,
      "bout": 3186,
      "bbing": 3187,
      "cing": 3188,
      "cious": 3189,
      "chered": 3190,
      "du": 3191,
      "dog": 3192,
      "ean": 3193,
      "eing": 3194,
      "egon": 3195,
      "fort": 3196,
      "fied": 3197,
      "gister": 3198,
      "gent": 3199,
      "ground": 3200,
      "hold": 3201,
      "ik": 3202,
      "ial": 3203,
      "ikes": 3204,
      "lt": 3205,
      "laugh": 3206,
      "mon": 3207,
      "med": 3208,
      "mith": 3209,
      "miss": 3210,
      "making": 3211,
      "nel": 3212,
      "of": 3213,
      "oice": 3214,
      "ph": 3215,
      "pon": 3216,
      "pers": 3217,
      "rated": 3218,
      "sur": 3219,
      "tely": 3220,
      "uss": 3221,
      "ump": 3222,
      "val": 3223,
      "ws": 3224,
      "wel": 3225,
      "yn": 3226,
      "you": 3227,
      "ymer": 3228,
      "ydog": 3229,
      "Ġ6": 3230,
      "Ġ8": 3231,
      "Ġest": 3232,
      "Ġtor": 3233,
      "Ġten": 3234,
      "Ġtal": 3235,
      "Ġtill": 3236,
      "Ġtall": 3237,
      "Ġtreat": 3238,
      "Ġtun": 3239,
      "Ġtits": 3240,
      "Ġtired": 3241,
      "Ġtaver": 3242,
      "Ġax": 3243,
      "Ġahead": 3244,
      "inces": 3245,
      "ars": 3246,
      "arri": 3247,
      "arly": 3248,
      "arling": 3249,
      "Ġsat": 3250,
      "Ġsell": 3251,
      "Ġsack": 3252,
      "Ġsigh": 3253,
      "Ġsiege": 3254,
      "ored": 3255,
      "ising": 3256,
      "reds": 3257,
      "reason": 3258,
      "Ġma": 3259,
      "Ġmist": 3260,
      "Ġmention": 3261,
      "Ġbr": 3262,
      "Ġbur": 3263,
      "Ġbend": 3264,
      "Ġbought": 3265,
      "Ġhouses": 3266,
      "attered": 3267,
      "ĠSon": 3268,
      "ĠSil": 3269,
      "ĠSept": 3270,
      "ĠShagg": 3271,
      "ĠSlow": 3272,
      "Ġlim": 3273,
      "Ġtoy": 3274,
      "Ġfur": 3275,
      "Ġfau": 3276,
      "Ġfigh": 3277,
      "Ġfail": 3278,
      "Ġfelt": 3279,
      "Ġdru": 3280,
      "ĠIrri": 3281,
      "Ġcru": 3282,
      "Ġcol": 3283,
      "Ġcunt": 3284,
      "Ġcask": 3285,
      "iting": 3286,
      "Ġop": 3287,
      "ĠTwo": 3288,
      "ĠLys": 3289,
      "ĠLast": 3290,
      "ĠLife": 3291,
      "ĠLyanna": 3292,
      "Ġoften": 3293,
      "ĠStri": 3294,
      "tern": 3295,
      "Ġhero": 3296,
      "Ġheav": 3297,
      "asons": 3298,
      "ashed": 3299,
      "Ġthirst": 3300,
      "omach": 3301,
      "Ġgent": 3302,
      "Ġgown": 3303,
      "Ġgently": 3304,
      "Ġgroup": 3305,
      "ĠWarden": 3306,
      "riage": 3307,
      "ĠBy": 3308,
      "ĠBal": 3309,
      "ĠBoth": 3310,
      "Ġpin": 3311,
      "Ġpour": 3312,
      "Ġpile": 3313,
      "eland": 3314,
      "ĠAbout": 3315,
      "ĠAegon": 3316,
      "ĠMmm": 3317,
      "ĠMost": 3318,
      "ĠMance": 3319,
      "ĠMeryn": 3320,
      "Ġnose": 3321,
      "ĠHell": 3322,
      "ĠHush": 3323,
      "ettle": 3324,
      "Ġkit": 3325,
      "Ġkept": 3326,
      "Ġkettle": 3327,
      "ades": 3328,
      "aced": 3329,
      "acher": 3330,
      "aled": 3331,
      "alous": 3332,
      "Ġstone": 3333,
      "Ġstru": 3334,
      "Ġstink": 3335,
      "Ġstren": 3336,
      "Ġstag": 3337,
      "Ġstorms": 3338,
      "Ġstreets": 3339,
      "Ġstomach": 3340,
      "Ġits": 3341,
      "Ġforgo": 3342,
      "Ġforever": 3343,
      "ident": 3344,
      "iders": 3345,
      "Ġhist": 3346,
      "ĠNymer": 3347,
      "Ġhammer": 3348,
      "ames": 3349,
      "amily": 3350,
      "Ġeh": 3351,
      "Ġemb": 3352,
      "Ġwithin": 3353,
      "Ġdozen": 3354,
      "ĠCa": 3355,
      "ĠCould": 3356,
      "Ġreach": 3357,
      "Ġreason": 3358,
      "Ġreign": 3359,
      "Ġasleep": 3360,
      "anted": 3361,
      "Ġate": 3362,
      "Ġseed": 3363,
      "Ġseven": 3364,
      "Ġsept": 3365,
      "Ġseated": 3366,
      "ĠWhile": 3367,
      "ĠWhich": 3368,
      "ĠJOFFREY": 3369,
      "Ġwilling": 3370,
      "Ġshock": 3371,
      "Ġshadow": 3372,
      "enty": 3373,
      "ific": 3374,
      "Ġgoat": 3375,
      "ĠAndal": 3376,
      "ĠAndals": 3377,
      "ĠThough": 3378,
      "Ġanc": 3379,
      "Ġant": 3380,
      "Ġanim": 3381,
      "ĠDolf": 3382,
      "ppy": 3383,
      "Ġdebt": 3384,
      "ĠOld": 3385,
      "ĠOpen": 3386,
      "ĠTargaryens": 3387,
      "Ġchar": 3388,
      "Ġchang": 3389,
      "Ġcharge": 3390,
      "Ġchasing": 3391,
      "ĠFind": 3392,
      "ĠFlow": 3393,
      "Ġwheel": 3394,
      "Ġsaved": 3395,
      "ongst": 3396,
      "ilt": 3397,
      "ĠRun": 3398,
      "ĠMycah": 3399,
      "Ġouts": 3400,
      "usted": 3401,
      "Ġblock": 3402,
      "Ġcombat": 3403,
      "Ġbutchered": 3404,
      "Ġsuit": 3405,
      "Ġsheep": 3406,
      "Ġbackground": 3407,
      "Ġarcher": 3408,
      "Ġoffended": 3409,
      "selord": 3410,
      "Ġspikes": 3411,
      "Ġhasn": 3412,
      "Ġentering": 3413,
      "There": 3414,
      "Ġlose": 3415,
      "Ġkills": 3416,
      "Ġhorselord": 3417,
      "Ġanyway": 3418,
      "Ġhearing": 3419,
      "Ġval": 3420,
      "Ġvill": 3421,
      "Ġvile": 3422,
      "Ġfeather": 3423,
      "Ġneedle": 3424,
      "Ġourselves": 3425,
      "Ġthinks": 3426,
      "Ġpledge": 3427,
      "Ġplenty": 3428,
      "onsense": 3429,
      "Ġkingdom": 3430,
      "Ġwarn": 3431,
      "Ġotherwise": 3432,
      "osite": 3433,
      "Ġhonorable": 3434,
      "Ġeverywhere": 3435,
      "Ġexit": 3436,
      "ĠBrann": 3437,
      "Ġslam": 3438,
      "Ġslave": 3439,
      "Ġrain": 3440,
      "Ġamongst": 3441,
      "Ġproof": 3442,
      "Ġfinding": 3443,
      "Ġstarting": 3444,
      "Ġlonger": 3445,
      "Ġappear": 3446,
      "ĠMagister": 3447,
      "Ġnights": 3448,
      "Ġpock": 3449,
      "Ġkeeping": 3450,
      "ures": 3451,
      "anguard": 3452,
      "agon": 3453,
      "Ġrare": 3454,
      "Ġrisk": 3455,
      "Ġcoins": 3456,
      "Ġcoals": 3457,
      "Ġ16": 3458,
      "Ġ17": 3459,
      "Ġ18": 3460,
      "Ġhuh": 3461,
      "Ġhugs": 3462,
      "Ġgiants": 3463,
      "ĠQuick": 3464,
      "Ġsometimes": 3465,
      "Ġknees": 3466,
      "Ġaccept": 3467,
      "Ġbastards": 3468,
      "ields": 3469,
      "ĠShut": 3470,
      "Ġfled": 3471,
      "Inside": 3472,
      "Ġdisapp": 3473,
      "Ġfamil": 3474,
      "ĠDidn": 3475,
      "Who": 3476,
      "ipl": 3477,
      "Ġdirect": 3478,
      "Ġcouple": 3479,
      "Ġbuilt": 3480,
      "Ġgloves": 3481,
      "Ġdrinking": 3482,
      "Ġopened": 3483,
      "Ġunderstands": 3484,
      "Ġdesc": 3485,
      "Ġdesp": 3486,
      "Ġpriv": 3487,
      "Ġpriest": 3488,
      "Ġears": 3489,
      "Ġassist": 3490,
      "Ġassassin": 3491,
      "Ġarrived": 3492,
      "Ġwaited": 3493,
      "Ġscreaming": 3494,
      "Ġbanners": 3495,
      "ĠROYCE": 3496,
      "Ġfools": 3497,
      "Stark": 3498,
      "Ġfinest": 3499,
      "Ġhallway": 3500,
      "Ġreads": 3501,
      "Ġnearly": 3502,
      "avos": 3503,
      "ship": 3504,
      "Ġkindness": 3505,
      "ledge": 3506,
      "Ġchains": 3507,
      "This": 3508,
      "ĠRoom": 3509,
      "Ġtouch": 3510,
      "Ġactually": 3511,
      "Ġwinning": 3512,
      "Ġsentence": 3513,
      "ĠSomeone": 3514,
      "Ġcrypts": 3515,
      "Ġconsider": 3516,
      "Ġinterru": 3517,
      "Ġstabs": 3518,
      "Ġshutting": 3519,
      "Ġbodies": 3520,
      "Ġguess": 3521,
      "Ġservant": 3522,
      "Ġclearly": 3523,
      "Ġadmit": 3524,
      "Ġcounting": 3525,
      "ĠNext": 3526,
      "Ġsecret": 3527,
      "Ġsilver": 3528,
      "Ġbirth": 3529,
      "ĠAnyone": 3530,
      "Ġkhalasar": 3531,
      "Ġstrikes": 3532,
      "Ġclimb": 3533,
      "Ġclimbing": 3534,
      "Ġdiscuss": 3535,
      "Ġgrim": 3536,
      "Ġpikes": 3537,
      "Ġrefused": 3538,
      "Ġhidden": 3539,
      "Ġobeys": 3540,
      "Ġinstantly": 3541,
      "Ġrapers": 3542,
      "Ġmarching": 3543,
      "Ġmonths": 3544,
      "Mycah": 3545,
      "ORAH": 3546,
      "Ġentire": 3547,
      "Ġescort": 3548,
      "ĠTomorrow": 3549,
      "Ġpacking": 3550,
      "Ġinsul": 3551,
      "Ġforeign": 3552,
      "Ġforehead": 3553,
      "ĠClose": 3554,
      "ĠCloaks": 3555,
      "Ġrequire": 3556,
      "Ġscouts": 3557,
      "Ġdeserter": 3558,
      "Ġnortherners": 3559,
      "ibly": 3560,
      "Ġafford": 3561,
      "Ġsounds": 3562,
      "Ġgrew": 3563,
      "Ġallowed": 3564,
      "Ġcloser": 3565,
      "Ġpractice": 3566,
      "Ġpracticing": 3567,
      "Ġstealing": 3568,
      "ĠBraavos": 3569,
      "Ġquestions": 3570,
      "Ġadvice": 3571,
      "Ġsnows": 3572,
      "Ġhomeland": 3573,
      "Ġduel": 3574,
      "Ġdeliver": 3575,
      "Ġcele": 3576,
      "Ġcandles": 3577,
      "Ġopposite": 3578,
      "Ġincant": 3579,
      "Ġeventually": 3580,
      "ĠRhaegar": 3581,
      "ĠUnless": 3582,
      "Ġcovered": 3583,
      "ĠShadowc": 3584,
      "Ġcompletely": 3585,
      "Steward": 3586,
      "------------------------------------------": 3587,
      "Ġimportant": 3588,
      "Ġaddress": 3589,
      "Ġwench": 3590,
      "ĠBrother": 3591,
      "Ġposition": 3592,
      "stitute": 3593,
      "ĠCrown": 3594,
      "Ġrecei": 3595,
      "Ġweeks": 3596,
      "Ġanni": 3597,
      "Ġsuccess": 3598,
      "Ġsummoned": 3599,
      "Ġviolence": 3600,
      "Ġperfect": 3601,
      "Across": 3602,
      "laughs": 3603,
      "Ġtorch": 3604,
      "Ġtalent": 3605,
      "Ġtunnel": 3606,
      "Ġtavern": 3607,
      "ĠShaggydog": 3608,
      "Ġfault": 3609,
      "Ġfighter": 3610,
      "Ġfailed": 3611,
      "Ġgentle": 3612,
      "ĠHello": 3613,
      "Ġstrength": 3614,
      "Ġforgot": 3615,
      "ĠNymeria": 3616,
      "ĠFlowers": 3617,
      "\",": 3618,
      "),": 3619,
      "Bael": 3620,
      "DAN": 3621,
      "Give": 3622,
      "Hu": 3623,
      "Just": 3624,
      "JORAH": 3625,
      "Kings": 3626,
      "Le": 3627,
      "Let": 3628,
      "Little": 3629,
      "Man": 3630,
      "Mas": 3631,
      "No": 3632,
      "Our": 3633,
      "Populace": 3634,
      "Rast": 3635,
      "Some": 3636,
      "TAR": 3637,
      "Until": 3638,
      "Where": 3639,
      "aith": 3640,
      "aps": 3641,
      "avers": 3642,
      "bb": 3643,
      "case": 3644,
      "chen": 3645,
      "dy": 3646,
      "dest": 3647,
      "ef": 3648,
      "eah": 3649,
      "fight": 3650,
      "fol": 3651,
      "ging": 3652,
      "ges": 3653,
      "gest": 3654,
      "his": 3655,
      "hil": 3656,
      "house": 3657,
      "hakharo": 3658,
      "ient": 3659,
      "ker": 3660,
      "lier": 3661,
      "law": 3662,
      "mall": 3663,
      "more": 3664,
      "mble": 3665,
      "mod": 3666,
      "mory": 3667,
      "name": 3668,
      "oh": 3669,
      "ok": 3670,
      "oys": 3671,
      "oist": 3672,
      "phe": 3673,
      "pher": 3674,
      "pse": 3675,
      "pting": 3676,
      "pare": 3677,
      "pose": 3678,
      "poin": 3679,
      "rch": 3680,
      "rase": 3681,
      "ual": 3682,
      "uff": 3683,
      "vy": 3684,
      "wing": 3685,
      "watch": 3686,
      "ymp": 3687,
      "ze": 3688,
      "zed": 3689,
      "Ġtur": 3690,
      "Ġtore": 3691,
      "Ġtough": 3692,
      "Ġtrink": 3693,
      "Ġteet": 3694,
      "Ġain": 3695,
      "Ġaven": 3696,
      "ares": 3697,
      "arth": 3698,
      "arren": 3699,
      "arating": 3700,
      "ero": 3701,
      "eral": 3702,
      "eric": 3703,
      "onder": 3704,
      "Ġwo": 3705,
      "Ġwra": 3706,
      "Ġwest": 3707,
      "Ġwings": 3708,
      "Ġwield": 3709,
      "Ġsac": 3710,
      "Ġsal": 3711,
      "Ġsne": 3712,
      "Ġsets": 3713,
      "Ġsna": 3714,
      "Ġsides": 3715,
      "Ġsymp": 3716,
      "oring": 3717,
      "orting": 3718,
      "aning": 3719,
      "rew": 3720,
      "Ġmin": 3721,
      "Ġmain": 3722,
      "Ġmag": 3723,
      "Ġbrand": 3724,
      "Ġbite": 3725,
      "Ġbunch": 3726,
      "Ġhorn": 3727,
      "Ġhatch": 3728,
      "Ġhos": 3729,
      "Ġhound": 3730,
      "Ġhang": 3731,
      "Ġhated": 3732,
      "Ġhole": 3733,
      "Ġhoist": 3734,
      "atcher": 3735,
      "athered": 3736,
      "Ġyard": 3737,
      "Ġyell": 3738,
      "Ġyester": 3739,
      "Ġyank": 3740,
      "enter": 3741,
      "ĠSu": 3742,
      "ĠSister": 3743,
      "ĠSave": 3744,
      "ĠSorry": 3745,
      "ĠSaw": 3746,
      "ĠSpeak": 3747,
      "ĠSouther": 3748,
      "Ġlays": 3749,
      "Ġlinger": 3750,
      "Ġloose": 3751,
      "Ġtower": 3752,
      "Ġfed": 3753,
      "Ġfro": 3754,
      "Ġfill": 3755,
      "Ġfish": 3756,
      "Ġfier": 3757,
      "Ġfrust": 3758,
      "Ġfends": 3759,
      "Ġfields": 3760,
      "Ġfaith": 3761,
      "Ġdish": 3762,
      "Ġdine": 3763,
      "Ġdirt": 3764,
      "Ġdyn": 3765,
      "Ġdarling": 3766,
      "Ġcam": 3767,
      "ites": 3768,
      "itch": 3769,
      "Ġodd": 3770,
      "Ġobs": 3771,
      "ĠTen": 3772,
      "ĠTra": 3773,
      "ĠTru": 3774,
      "ĠTongue": 3775,
      "ĠTreason": 3776,
      "eddle": 3777,
      "ĠLong": 3778,
      "ĠLike": 3779,
      "ĠStill": 3780,
      "ĠStallion": 3781,
      "term": 3782,
      "Ġhey": 3783,
      "ash": 3784,
      "asy": 3785,
      "ased": 3786,
      "Ġthrew": 3787,
      "omen": 3788,
      "Ġgen": 3789,
      "Ġgro": 3790,
      "Ġgut": 3791,
      "Ġgall": 3792,
      "Ġgru": 3793,
      "Ġghost": 3794,
      "Ġgrows": 3795,
      "Ġgates": 3796,
      "Ġgames": 3797,
      "Ġgathered": 3798,
      "ĠWelcome": 3799,
      "ĠWatcher": 3800,
      "ĠWomen": 3801,
      "ries": 3802,
      "ribes": 3803,
      "ĠBu": 3804,
      "ĠBow": 3805,
      "ĠBess": 3806,
      "ĠBest": 3807,
      "ĠBurn": 3808,
      "ĠBaker": 3809,
      "Ġbeer": 3810,
      "Ġpen": 3811,
      "Ġpom": 3812,
      "Ġple": 3813,
      "Ġprou": 3814,
      "Ġpath": 3815,
      "Ġpot": 3816,
      "Ġpig": 3817,
      "Ġponder": 3818,
      "Ġinches": 3819,
      "Ġincl": 3820,
      "elp": 3821,
      "eless": 3822,
      "ĠAnother": 3823,
      "rol": 3824,
      "ĠMar": 3825,
      "ĠMight": 3826,
      "ĠMore": 3827,
      "ĠMust": 3828,
      "ĠMOR": 3829,
      "Ġnoise": 3830,
      "ĠHit": 3831,
      "ĠHorn": 3832,
      "ĠHonor": 3833,
      "ĠHot": 3834,
      "ĠHouses": 3835,
      "ĠHarren": 3836,
      "ĠHeddle": 3837,
      "acing": 3838,
      "Ġmemory": 3839,
      "ĠDam": 3840,
      "ĠDra": 3841,
      "ĠDorn": 3842,
      "ĠDond": 3843,
      "ĠDoreah": 3844,
      "ĠDorne": 3845,
      "ĠDaenarys": 3846,
      "Ġstood": 3847,
      "Ġstran": 3848,
      "Ġstare": 3849,
      "Ġstret": 3850,
      "oole": 3851,
      "oots": 3852,
      "Ġforce": 3853,
      "Ġforces": 3854,
      "Ġforced": 3855,
      "idow": 3856,
      "Ġwhite": 3857,
      "Ġwhip": 3858,
      "ĠKING": 3859,
      "ĠNine": 3860,
      "ayder": 3861,
      "Ġnat": 3862,
      "Ġnone": 3863,
      "Ġnick": 3864,
      "Ġnumber": 3865,
      "Ġnonsense": 3866,
      "amed": 3867,
      "Ġuh": 3868,
      "Ġune": 3869,
      "Ġunc": 3870,
      "-----": 3871,
      "Ġeast": 3872,
      "Ġequ": 3873,
      "Ġeun": 3874,
      "Ġemp": 3875,
      "ĠGendry": 3876,
      "ĠGARED": 3877,
      "Ġdogs": 3878,
      "Ġdolls": 3879,
      "ĠCh": 3880,
      "ĠCon": 3881,
      "ĠCall": 3882,
      "Ġreve": 3883,
      "Ġreward": 3884,
      "Ġrelease": 3885,
      "Ġreasons": 3886,
      "Ġwaste": 3887,
      "Ġliqu": 3888,
      "Ġsear": 3889,
      "dding": 3890,
      "ddam": 3891,
      "Ġnotice": 3892,
      "urt": 3893,
      "urbing": 3894,
      "Ġhers": 3895,
      "Ġshown": 3896,
      "Ġshot": 3897,
      "Ġshows": 3898,
      "Ġships": 3899,
      "Ġshoved": 3900,
      "ĠHey": 3901,
      "ents": 3902,
      "iff": 3903,
      "ified": 3904,
      "haired": 3905,
      "asty": 3906,
      "astwatch": 3907,
      "Ġweight": 3908,
      "Ġmanner": 3909,
      "ĠThink": 3910,
      "Ġang": 3911,
      "ĠPardon": 3912,
      "ĠPoole": 3913,
      "ppers": 3914,
      "Ġdeal": 3915,
      "Ġdeterm": 3916,
      "Ġchose": 3917,
      "Ġcharming": 3918,
      "ĠFat": 3919,
      "ĠFear": 3920,
      "ĠFive": 3921,
      "Ġridd": 3922,
      "Ġripped": 3923,
      "rous": 3924,
      "rank": 3925,
      "rance": 3926,
      "ils": 3927,
      "ĠRast": 3928,
      "ĠRem": 3929,
      "ĠRickon": 3930,
      "Jonos": 3931,
      "Ġoutlaw": 3932,
      "Ġbroke": 3933,
      "Ġbroken": 3934,
      "aining": 3935,
      "Ġblow": 3936,
      "Ġblind": 3937,
      "Ġblond": 3938,
      "Ġblank": 3939,
      "Ġcomfort": 3940,
      "ntie": 3941,
      "Ġsub": 3942,
      "ops": 3943,
      "Ġmoons": 3944,
      "Ġmoved": 3945,
      "Ġmoaning": 3946,
      "Ġoffer": 3947,
      "Ġjud": 3948,
      "Ġspl": 3949,
      "Ġspit": 3950,
      "Ġspent": 3951,
      "Ġspite": 3952,
      "Ġspins": 3953,
      "Ġeng": 3954,
      "ĠWhent": 3955,
      "ĠYours": 3956,
      "Ġlock": 3957,
      "isted": 3958,
      "ĠGod": 3959,
      "ĠGoing": 3960,
      "ĠEastwatch": 3961,
      "Ġanywhere": 3962,
      "Ġanymore": 3963,
      "icking": 3964,
      "Ġvoice": 3965,
      "Ġvanguard": 3966,
      "Ġrude": 3967,
      "ously": 3968,
      "Ġfever": 3969,
      "Ġneeded": 3970,
      "Ġbot": 3971,
      "Ġbother": 3972,
      "ĠArmor": 3973,
      "ggest": 3974,
      "ggling": 3975,
      "abl": 3976,
      "Ġorph": 3977,
      "Ġscr": 3978,
      "Ġplans": 3979,
      "Ġplot": 3980,
      "Ġshoulder": 3981,
      "Ġarmoured": 3982,
      "olog": 3983,
      "athies": 3984,
      "Ġhadn": 3985,
      "Ġhowling": 3986,
      "------------------------------": 3987,
      "ĠUsur": 3988,
      "Ġwherever": 3989,
      "Ġhonored": 3990,
      "Ġclu": 3991,
      "Ġcloak": 3992,
      "Ġexch": 3993,
      "Ġexper": 3994,
      "Ġexcept": 3995,
      "Ġoverlooking": 3996,
      "icious": 3997,
      "Ġslip": 3998,
      "Ġraises": 3999,
      "Ġraised": 4000,
      "Ġrabb": 4001,
      "Ġamb": 4002,
      "ateful": 4003,
      "Ġprocess": 4004,
      "Ġprocl": 4005,
      "ĠRobbs": 4006,
      "Ġlasted": 4007,
      "Ġletters": 4008,
      "Ġprefer": 4009,
      "Ġsmo": 4010,
      "Ġsmack": 4011,
      "ounts": 4012,
      "Ġpoacher": 4013,
      "Ġconv": 4014,
      "Ġconquer": 4015,
      "Ġcutting": 4016,
      "Ġremoves": 4017,
      "Ġremains": 4018,
      "Ġcost": 4019,
      "Ġcoppers": 4020,
      "Ġrealized": 4021,
      "Ġturning": 4022,
      "Ġputting": 4023,
      "ĠQuite": 4024,
      "ĠAsk": 4025,
      "Ġkneel": 4026,
      "Ġcommander": 4027,
      "Ġcommanded": 4028,
      "Ġcares": 4029,
      "Ġcarried": 4030,
      "reaming": 4031,
      "Ġbeds": 4032,
      "Ġunb": 4033,
      "Ġunp": 4034,
      "Ġunw": 4035,
      "Ġunless": 4036,
      "Ġevening": 4037,
      "chanting": 4038,
      "ĠOnce": 4039,
      "Why": 4040,
      "ĠInside": 4041,
      "Ġcourage": 4042,
      "Ġmeaning": 4043,
      "ances": 4044,
      "Ġhandle": 4045,
      "Ġglares": 4046,
      "Ġsquir": 4047,
      "Ġhoped": 4048,
      "Ġfires": 4049,
      "Ġattacking": 4050,
      "Ġreturns": 4051,
      "Ġskull": 4052,
      "ĠBeyond": 4053,
      "ĠCommon": 4054,
      "Ġswordsman": 4055,
      "ĠEverything": 4056,
      "ĠEverywhere": 4057,
      "Ġfeared": 4058,
      "Ġdesk": 4059,
      "Ġprick": 4060,
      "Ġpride": 4061,
      "Ġearly": 4062,
      "Ġassum": 4063,
      "Ġassistance": 4064,
      "Ġcompl": 4065,
      "Ġcompet": 4066,
      "Ġwindows": 4067,
      "ressed": 4068,
      "Ġstaying": 4069,
      "Ġravens": 4070,
      "Ġdawn": 4071,
      "itors": 4072,
      "Ġgrateful": 4073,
      "Ġleader": 4074,
      "Pypar": 4075,
      "umble": 4076,
      "Ġhitting": 4077,
      "Ġcrosses": 4078,
      "Ġcrossed": 4079,
      "Ġeaten": 4080,
      "Ġbitch": 4081,
      "Ġfully": 4082,
      "Ġrepe": 4083,
      "Ġreports": 4084,
      "Ġpresum": 4085,
      "Ġfollowing": 4086,
      "Stable": 4087,
      "Ġtrad": 4088,
      "Ġfinish": 4089,
      "Ġfinally": 4090,
      "Ġgrab": 4091,
      "Ġgrave": 4092,
      "Ġpicking": 4093,
      "Ġnearby": 4094,
      "Ġarmorer": 4095,
      "------------------------------------------------": 4096,
      "Ġsadd": 4097,
      "Ġcontact": 4098,
      "ĠReally": 4099,
      "ĠRegent": 4100,
      "Ġprotecting": 4101,
      "Ġmountains": 4102,
      "Ġhousehold": 4103,
      "Ġprayers": 4104,
      "Ġcaptive": 4105,
      "Ġmissed": 4106,
      "Ġdrop": 4107,
      "Ġstables": 4108,
      "Ġstabbed": 4109,
      "Ġwondering": 4110,
      "Ġwondered": 4111,
      "Ġbannerman": 4112,
      "Ġdecide": 4113,
      "Ġdecides": 4114,
      "Ġdecided": 4115,
      "Ġjoke": 4116,
      "Ġmerchants": 4117,
      "Ġclearing": 4118,
      "Ġbrains": 4119,
      "ĠLeft": 4120,
      "Ġstole": 4121,
      "ĠNeither": 4122,
      "whisper": 4123,
      "Ġtroub": 4124,
      "Ġwrath": 4125,
      "Ġsilent": 4126,
      "Ġsilence": 4127,
      "Ġharder": 4128,
      "Ġdamned": 4129,
      "Ġcorpse": 4130,
      "Ġoaths": 4131,
      "Ġknocked": 4132,
      "Ġresp": 4133,
      "Ġfeels": 4134,
      "Ġexpecting": 4135,
      "Ġexpected": 4136,
      "Ġhundreds": 4137,
      "Ġdiscover": 4138,
      "Ġdiscipl": 4139,
      "pitality": 4140,
      "looks": 4141,
      "Ġbusy": 4142,
      "Ġdressed": 4143,
      "Ġdrunken": 4144,
      "Ġgrip": 4145,
      "Ġpige": 4146,
      "Ġpurpose": 4147,
      "ĠOutside": 4148,
      "Ġsavage": 4149,
      "Ġblessed": 4150,
      "Ġnameday": 4151,
      "Ġcowards": 4152,
      "Ġ300": 4153,
      "Ġsongs": 4154,
      "Ġbabies": 4155,
      "Ġhides": 4156,
      "Ġinstru": 4157,
      "Ġdeeper": 4158,
      "ĠEnjoy": 4159,
      "Ġrape": 4160,
      "Ġbreakfast": 4161,
      "Ġentrance": 4162,
      "Ġmouths": 4163,
      "Ġbargain": 4164,
      "Ġdreams": 4165,
      "Ġdreaming": 4166,
      "Ġintens": 4167,
      "plate": 4168,
      "Ġmiddle": 4169,
      "Ġgreen": 4170,
      "Ġpassed": 4171,
      "Ġwhispering": 4172,
      "Ġdefeat": 4173,
      "Ġdefeated": 4174,
      "Ġjousting": 4175,
      "Ġspoke": 4176,
      "Ġpoint": 4177,
      "Ġpoints": 4178,
      "Ġpossible": 4179,
      "Ġbreastplate": 4180,
      "Ġcontinue": 4181,
      "Ġcontinues": 4182,
      "Going": 4183,
      "Ġ40": 4184,
      "Ġ500": 4185,
      "Ġsnake": 4186,
      "Ġsimple": 4187,
      "Ġmusc": 4188,
      "Ġmusic": 4189,
      "Ġbathing": 4190,
      "Ġpups": 4191,
      "Ġparty": 4192,
      "Ġpatience": 4193,
      "Ġjealous": 4194,
      "Ġquestion": 4195,
      "Ġskycell": 4196,
      "Ġaccompl": 4197,
      "Ġaccommod": 4198,
      "Ġsurprise": 4199,
      "Ġguests": 4200,
      "Suddenly": 4201,
      "Ġtwice": 4202,
      "Ġsignals": 4203,
      "Ġmarks": 4204,
      "Ġowe": 4205,
      "Ġgrandfather": 4206,
      "Ġpunished": 4207,
      "Ġshooting": 4208,
      "Ġweapon": 4209,
      "Ġweapons": 4210,
      "Ġrotting": 4211,
      "Ġenjoyed": 4212,
      "Ġproperly": 4213,
      "Ġpreparing": 4214,
      "Ġsurrounded": 4215,
      "Ġrebellion": 4216,
      "axes": 4217,
      "screaming": 4218,
      "Ġapolog": 4219,
      "Ġwives": 4220,
      "respect": 4221,
      "Ġtowns": 4222,
      "ĠLovely": 4223,
      "Ġthreaten": 4224,
      "ĠWords": 4225,
      "Ġphrase": 4226,
      "Ġstaircase": 4227,
      "ĠGlover": 4228,
      "Ġregret": 4229,
      "Ġspecific": 4230,
      "Ġbetrayed": 4231,
      "Ġappointments": 4232,
      "Ġunshe": 4233,
      "Ġadmiration": 4234,
      "Ġrequested": 4235,
      "Ġterrible": 4236,
      "ĠValyrian": 4237,
      "Ġfavorites": 4238,
      "Ġexecutioner": 4239,
      "Ġestabl": 4240,
      "Ġaxe": 4241,
      "arrion": 4242,
      "Ġsighs": 4243,
      "Ġbrings": 4244,
      "Ġfurther": 4245,
      "Ġopin": 4246,
      "Ġkitchen": 4247,
      "Ġstinks": 4248,
      "ĠCapt": 4249,
      "Ġanimal": 4250,
      "Ġchanges": 4251,
      "Ġoutsider": 4252,
      "Ġarchery": 4253,
      "Ġslamming": 4254,
      "Ġdisappoint": 4255,
      "Ġpriestess": 4256,
      "Ġentirely": 4257,
      "Ġcelebr": 4258,
      "Ġincantations": 4259,
      "ĠShadowcats": 4260,
      "Ġreceived": 4261,
      "Hugh": 4262,
      "Masha": 4263,
      "folk": 4264,
      "hilarating": 4265,
      "Ġteeth": 4266,
      "Ġsalt": 4267,
      "Ġsympathies": 4268,
      "Ġmagic": 4269,
      "Ġhospitality": 4270,
      "Ġyesterday": 4271,
      "ĠSisters": 4272,
      "Ġdishonor": 4273,
      "Ġdynasty": 4274,
      "Ġobser": 4275,
      "ĠTraitor": 4276,
      "ribesmen": 4277,
      "ĠBessie": 4278,
      "ĠBurned": 4279,
      "Ġplead": 4280,
      "Ġproud": 4281,
      "Ġponderous": 4282,
      "ĠHarrenhal": 4283,
      "ĠDamn": 4284,
      "ĠDornish": 4285,
      "ĠDondarrion": 4286,
      "Ġeunuch": 4287,
      "Ġempty": 4288,
      "Ġorphan": 4289,
      "ĠUsurper": 4290,
      "Ġrabbits": 4291,
      "Ġproclaim": 4292,
      "Ġpoachers": 4293,
      "Ġdiscovered": 4294,
      "Ġaccommodate": 4295,
      "!âĢĿ": 4296,
      "\"...": 4297,
      "AE": 4298,
      "AY": 4299,
      "Arri": 4300,
      "Addam": 4301,
      "Beric": 4302,
      "CK": 4303,
      "Ch": 4304,
      "Don": 4305,
      "Dare": 4306,
      "DEN": 4307,
      "Even": 4308,
      "Family": 4309,
      "Ghost": 4310,
      "Have": 4311,
      "Here": 4312,
      "Jh": 4313,
      "KING": 4314,
      "LE": 4315,
      "LO": 4316,
      "Last": 4317,
      "Later": 4318,
      "Listen": 4319,
      "LLYRIO": 4320,
      "MAR": 4321,
      "Mean": 4322,
      "NO": 4323,
      "OL": 4324,
      "Out": 4325,
      "Open": 4326,
      "PT": 4327,
      "Pro": 4328,
      "Protector": 4329,
      "Ret": 4330,
      "Riding": 4331,
      "Riders": 4332,
      "Sh": 4333,
      "Sto": 4334,
      "Sever": 4335,
      "Tom": 4336,
      "TER": 4337,
      "Two": 4338,
      "Un": 4339,
      "Upon": 4340,
      "WAY": 4341,
      "af": 4342,
      "aits": 4343,
      "aper": 4344,
      "apping": 4345,
      "apses": 4346,
      "bo": 4347,
      "bor": 4348,
      "bre": 4349,
      "bid": 4350,
      "but": 4351,
      "bows": 4352,
      "bart": 4353,
      "che": 4354,
      "car": 4355,
      "cely": 4356,
      "dis": 4357,
      "ee": 4358,
      "eel": 4359,
      "eal": 4360,
      "fit": 4361,
      "foo": 4362,
      "fts": 4363,
      "faced": 4364,
      "gy": 4365,
      "gers": 4366,
      "gned": 4367,
      "gusted": 4368,
      "hmm": 4369,
      "ian": 4370,
      "iqu": 4371,
      "iving": 4372,
      "iate": 4373,
      "iantly": 4374,
      "ivil": 4375,
      "ippy": 4376,
      "jor": 4377,
      "ject": 4378,
      "joys": 4379,
      "ks": 4380,
      "ky": 4381,
      "kiss": 4382,
      "lÃ": 4383,
      "ler": 4384,
      "lord": 4385,
      "land": 4386,
      "light": 4387,
      "lers": 4388,
      "lare": 4389,
      "like": 4390,
      "lines": 4391,
      "me": 4392,
      "mo": 4393,
      "mit": 4394,
      "make": 4395,
      "mps": 4396,
      "maid": 4397,
      "ns": 4398,
      "nis": 4399,
      "nic": 4400,
      "number": 4401,
      "oe": 4402,
      "oss": 4403,
      "ogged": 4404,
      "oices": 4405,
      "pe": 4406,
      "ped": 4407,
      "pri": 4408,
      "port": 4409,
      "pock": 4410,
      "pider": 4411,
      "play": 4412,
      "rast": 4413,
      "rcell": 4414,
      "rate": 4415,
      "ration": 4416,
      "rass": 4417,
      "sake": 4418,
      "sive": 4419,
      "shed": 4420,
      "sword": 4421,
      "speak": 4422,
      "smith": 4423,
      "tes": 4424,
      "tom": 4425,
      "tack": 4426,
      "tain": 4427,
      "takes": 4428,
      "tip": 4429,
      "tled": 4430,
      "ug": 4431,
      "uh": 4432,
      "ught": 4433,
      "ury": 4434,
      "udd": 4435,
      "vo": 4436,
      "vings": 4437,
      "view": 4438,
      "we": 4439,
      "wife": 4440,
      "weet": 4441,
      "wls": 4442,
      "work": 4443,
      "xpect": 4444,
      "yk": 4445,
      "yro": 4446,
      "yles": 4447,
      "©e": 4448,
      "ªlÃ": 4449,
      "ÃªlÃ": 4450,
      "Ġ#": 4451,
      "Ġ9": 4452,
      "Ġut": 4453,
      "ĠRodrick": 4454,
      "Ġtar": 4455,
      "Ġtwin": 4456,
      "Ġtorn": 4457,
      "Ġtest": 4458,
      "Ġtied": 4459,
      "Ġtens": 4460,
      "Ġtail": 4461,
      "Ġtask": 4462,
      "Ġtending": 4463,
      "hever": 4464,
      "heming": 4465,
      "Ġale": 4466,
      "int": 4467,
      "ouch": 4468,
      "ounc": 4469,
      "ared": 4470,
      "arak": 4471,
      "arently": 4472,
      "arrass": 4473,
      "erie": 4474,
      "erness": 4475,
      "eremon": 4476,
      "onel": 4477,
      "onely": 4478,
      "onest": 4479,
      "onation": 4480,
      "Ġwro": 4481,
      "Ġways": 4482,
      "Ġwins": 4483,
      "Ġwiser": 4484,
      "Ġwaking": 4485,
      "Ġwildling": 4486,
      "Ġwail": 4487,
      "Ġwagon": 4488,
      "Ġwidow": 4489,
      "Ġsake": 4490,
      "Ġske": 4491,
      "Ġsink": 4492,
      "Ġsize": 4493,
      "Ġsatis": 4494,
      "Ġsouther": 4495,
      "Ġstern": 4496,
      "ora": 4497,
      "orified": 4498,
      "anions": 4499,
      "anwhile": 4500,
      "isc": 4501,
      "isher": 4502,
      "ispers": 4503,
      "reen": 4504,
      "reys": 4505,
      "rest": 4506,
      "reep": 4507,
      "regor": 4508,
      "repar": 4509,
      "rels": 4510,
      "regn": 4511,
      "Ġmir": 4512,
      "Ġmatch": 4513,
      "Ġmile": 4514,
      "Ġmons": 4515,
      "Ġmare": 4516,
      "Ġmaid": 4517,
      "Ġmud": 4518,
      "Ġmelt": 4519,
      "ĠmÃªlÃ": 4520,
      "Ġbard": 4521,
      "Ġbac": 4522,
      "Ġbid": 4523,
      "Ġbone": 4524,
      "Ġbru": 4525,
      "Ġbran": 4526,
      "Ġbare": 4527,
      "Ġbale": 4528,
      "Ġbene": 4529,
      "Ġbank": 4530,
      "Ġbaw": 4531,
      "Ġbaker": 4532,
      "Ġboring": 4533,
      "Ġboots": 4534,
      "Ġhack": 4535,
      "Ġhide": 4536,
      "Ġhmm": 4537,
      "Ġhoney": 4538,
      "Ġhonest": 4539,
      "atform": 4540,
      "Ġyurt": 4541,
      "ences": 4542,
      "lla": 4543,
      "lling": 4544,
      "ĠSE": 4545,
      "ĠSit": 4546,
      "ĠSell": 4547,
      "ĠSure": 4548,
      "ĠSally": 4549,
      "ĠSince": 4550,
      "ĠSandor": 4551,
      "ĠSigil": 4552,
      "ĠSomeday": 4553,
      "ĠSTAR": 4554,
      "ĠSmall": 4555,
      "ĠSNO": 4556,
      "ĠSpider": 4557,
      "Ġln": 4558,
      "Ġlan": 4559,
      "Ġlit": 4560,
      "Ġled": 4561,
      "Ġloo": 4562,
      "Ġlun": 4563,
      "Ġlunge": 4564,
      "Ġlonely": 4565,
      "Ġtoast": 4566,
      "Ġtoward": 4567,
      "Ġfal": 4568,
      "Ġfend": 4569,
      "Ġfester": 4570,
      "Ġfain": 4571,
      "Ġfold": 4572,
      "Ġfles": 4573,
      "Ġfig": 4574,
      "Ġfinger": 4575,
      "Ġfaster": 4576,
      "Ġfix": 4577,
      "Ġfero": 4578,
      "Ġfisher": 4579,
      "Ġdet": 4580,
      "Ġdry": 4581,
      "Ġdest": 4582,
      "Ġdesi": 4583,
      "Ġdying": 4584,
      "Ġduring": 4585,
      "Ġdumb": 4586,
      "Ġdrast": 4587,
      "ĠIro": 4588,
      "ĠInt": 4589,
      "ĠICE": 4590,
      "ĠILLYRIO": 4591,
      "ese": 4592,
      "Ġcur": 4593,
      "Ġcust": 4594,
      "Ġcase": 4595,
      "Ġcrack": 4596,
      "Ġcenter": 4597,
      "Ġcrank": 4598,
      "Ġcivil": 4599,
      "Ġceremon": 4600,
      "Ġcreep": 4601,
      "itad": 4602,
      "itary": 4603,
      "itated": 4604,
      "itten": 4605,
      "ndown": 4606,
      "Ġomen": 4607,
      "ĠTys": 4608,
      "ĠTry": 4609,
      "ĠTall": 4610,
      "ĠToy": 4611,
      "ĠTalk": 4612,
      "ĠTurn": 4613,
      "ĠTown": 4614,
      "ĠTough": 4615,
      "ĠTYRION": 4616,
      "ĠTonight": 4617,
      "ĠTribesmen": 4618,
      "eding": 4619,
      "edom": 4620,
      "edest": 4621,
      "ĠLUWIN": 4622,
      "ĠStick": 4623,
      "ĠStrong": 4624,
      "ĠStart": 4625,
      "Ġheels": 4626,
      "asion": 4627,
      "ashing": 4628,
      "Ġthir": 4629,
      "Ġthrust": 4630,
      "Ġgor": 4631,
      "Ġgif": 4632,
      "Ġgest": 4633,
      "Ġgag": 4634,
      "Ġgreet": 4635,
      "Ġgarb": 4636,
      "Ġgaz": 4637,
      "Ġgash": 4638,
      "ĠWy": 4639,
      "ĠWar": 4640,
      "ĠWind": 4641,
      "ĠWear": 4642,
      "ĠWest": 4643,
      "ĠWait": 4644,
      "ĠWald": 4645,
      "ĠWIN": 4646,
      "ĠWork": 4647,
      "rily": 4648,
      "right": 4649,
      "ĠBhar": 4650,
      "ĠBENJEN": 4651,
      "ĠBread": 4652,
      "Ġbeach": 4653,
      "Ġpet": 4654,
      "Ġpill": 4655,
      "Ġpow": 4656,
      "Ġpir": 4657,
      "Ġpale": 4658,
      "Ġpier": 4659,
      "Ġpopulace": 4660,
      "Ġpedest": 4661,
      "Ġind": 4662,
      "Ġinher": 4663,
      "Ġinves": 4664,
      "Ġinform": 4665,
      "ĠAgain": 4666,
      "imet": 4667,
      "imper": 4668,
      "rop": 4669,
      "roy": 4670,
      "room": 4671,
      "roken": 4672,
      "rodu": 4673,
      "ĠMra": 4674,
      "ĠMine": 4675,
      "ĠMaking": 4676,
      "ĠMarillion": 4677,
      "ĠMommy": 4678,
      "ĠMarb": 4679,
      "ĠMhmm": 4680,
      "ĠYet": 4681,
      "ĠYield": 4682,
      "ĠYOU": 4683,
      "ĠYeah": 4684,
      "Ġnoises": 4685,
      "ording": 4686,
      "ĠHas": 4687,
      "ĠHill": 4688,
      "ĠHall": 4689,
      "ĠHands": 4690,
      "ĠHold": 4691,
      "ĠHelp": 4692,
      "etch": 4693,
      "Ġkhaleesi": 4694,
      "ĠTheir": 4695,
      "alth": 4696,
      "albart": 4697,
      "ĠLannis": 4698,
      "Ġonlook": 4699,
      "Ġmeal": 4700,
      "Ġmeek": 4701,
      "ĠDist": 4702,
      "ĠDown": 4703,
      "ĠDAN": 4704,
      "ĠDwarf": 4705,
      "ĠDread": 4706,
      "ĠDead": 4707,
      "ĠDrop": 4708,
      "illing": 4709,
      "Ġstro": 4710,
      "Ġstall": 4711,
      "Ġstake": 4712,
      "Ġstale": 4713,
      "Ġstunt": 4714,
      "Ġstuff": 4715,
      "Ġstumble": 4716,
      "aks": 4717,
      "Ġforth": 4718,
      "Ġforest": 4719,
      "Ġforged": 4720,
      "Ġforbid": 4721,
      "Ġfornic": 4722,
      "Ġforsake": 4723,
      "idly": 4724,
      "Ġwhimper": 4725,
      "ĠKnow": 4726,
      "ĠKind": 4727,
      "ĠKnock": 4728,
      "stone": 4729,
      "step": 4730,
      "stab": 4731,
      "strous": 4732,
      "ĠNor": 4733,
      "thank": 4734,
      "Ġnic": 4735,
      "Ġnum": 4736,
      "Ġnippy": 4737,
      "utation": 4738,
      "irts": 4739,
      "ambers": 4740,
      "Ġur": 4741,
      "Ġund": 4742,
      "Ġease": 4743,
      "ĠGarth": 4744,
      "Ġdod": 4745,
      "Ġdove": 4746,
      "ĠChe": 4747,
      "ĠCut": 4748,
      "ĠCertain": 4749,
      "ĠCASSEL": 4750,
      "ĠCitad": 4751,
      "Ġrej": 4752,
      "Ġrend": 4753,
      "Ġreds": 4754,
      "Ġreaches": 4755,
      "Ġreleas": 4756,
      "Ġreview": 4757,
      "Ġwash": 4758,
      "Ġasses": 4759,
      "Ġlip": 4760,
      "Ġlions": 4761,
      "Ġlips": 4762,
      "Ġlibr": 4763,
      "Ġlifts": 4764,
      "antage": 4765,
      "Ġatop": 4766,
      "outing": 4767,
      "ĠKingdom": 4768,
      "Ġsex": 4769,
      "Ġseas": 4770,
      "Ġsevent": 4771,
      "Ġseized": 4772,
      "Ġsewing": 4773,
      "ĠWhose": 4774,
      "ighting": 4775,
      "ĠJanos": 4776,
      "Ġnote": 4777,
      "Ġnoticing": 4778,
      "rap": 4779,
      "raught": 4780,
      "ural": 4781,
      "Ġherself": 4782,
      "Eddark": 4783,
      "Ġshave": 4784,
      "Ġshove": 4785,
      "Ġshoves": 4786,
      "Ġshirt": 4787,
      "Ġshudd": 4788,
      "Ġneither": 4789,
      "entos": 4790,
      "ifes": 4791,
      "ifies": 4792,
      "Ġgod": 4793,
      "hausted": 4794,
      "ceed": 4795,
      "aste": 4796,
      "Ġweep": 4797,
      "Ġwealth": 4798,
      "cky": 4799,
      "Ġmanaged": 4800,
      "oreign": 4801,
      "ĠThings": 4802,
      "Ġknowledge": 4803,
      "Ġanvil": 4804,
      "Ġthemselves": 4805,
      "ĠPick": 4806,
      "ĠPity": 4807,
      "ĠPage": 4808,
      "ĠPentos": 4809,
      "pper": 4810,
      "Ġleather": 4811,
      "Ġleag": 4812,
      "Ġleashed": 4813,
      "Ġcane": 4814,
      "Ġdem": 4815,
      "Ġdeer": 4816,
      "ĠOff": 4817,
      "ĠOwls": 4818,
      "Ġswung": 4819,
      "ĠNobody": 4820,
      "Ġchat": 4821,
      "Ġchick": 4822,
      "Ġchase": 4823,
      "ĠFire": 4824,
      "ĠFare": 4825,
      "ĠFuck": 4826,
      "ĠFair": 4827,
      "ĠFingers": 4828,
      "ĠFamily": 4829,
      "ĠFreys": 4830,
      "ĠFighting": 4831,
      "ĠForeign": 4832,
      "Ġriche": 4833,
      "ishment": 4834,
      "esses": 4835,
      "Ġsaus": 4836,
      "ansl": 4837,
      "ranged": 4838,
      "ilth": 4839,
      "ility": 4840,
      "ilities": 4841,
      "ĠRel": 4842,
      "ĠRise": 4843,
      "ĠRhakharo": 4844,
      "ĠRayder": 4845,
      "Ġoutrage": 4846,
      "Ġoutnumber": 4847,
      "ĠVan": 4848,
      "ĠVISERYS": 4849,
      "ffon": 4850,
      "fford": 4851,
      "Ġupset": 4852,
      "aint": 4853,
      "ained": 4854,
      "Ġrow": 4855,
      "Ġroar": 4856,
      "Ġrole": 4857,
      "Ġrots": 4858,
      "Ġroot": 4859,
      "Ġroles": 4860,
      "Ġrolls": 4861,
      "Ġrope": 4862,
      "Ġsoft": 4863,
      "Ġsobbing": 4864,
      "Ġabs": 4865,
      "Ġaband": 4866,
      "Ġsus": 4867,
      "Ġsuggest": 4868,
      "Ġsundown": 4869,
      "ief": 4870,
      "Ġshed": 4871,
      "oping": 4872,
      "Ġusually": 4873,
      "Ġmob": 4874,
      "Ġmot": 4875,
      "Ġmodest": 4876,
      "Ġbrotherly": 4877,
      "Ġarse": 4878,
      "Ġarrows": 4879,
      "Ġarrange": 4880,
      "Ġarranged": 4881,
      "Ġoffers": 4882,
      "Ġoffend": 4883,
      "Ġoffic": 4884,
      "Ġoffens": 4885,
      "Ġjaw": 4886,
      "Ġjump": 4887,
      "Ġspies": 4888,
      "Ġspears": 4889,
      "Ġspare": 4890,
      "Ġspits": 4891,
      "Ġspike": 4892,
      "Ġspills": 4893,
      "Ġspiders": 4894,
      "Ġswordfight": 4895,
      "cture": 4896,
      "emingly": 4897,
      "Ġenvy": 4898,
      "ires": 4899,
      "ĠShepher": 4900,
      "urning": 4901,
      "Ġlover": 4902,
      "Ġlosing": 4903,
      "rones": 4904,
      "Ġkillers": 4905,
      "ĠEase": 4906,
      "ĠEars": 4907,
      "ĠEasy": 4908,
      "Ġanybody": 4909,
      "Ġhearth": 4910,
      "ickard": 4911,
      "Ġworried": 4912,
      "bered": 4913,
      "ney": 4914,
      "Ġawake": 4915,
      "Ġaware": 4916,
      "Ġawful": 4917,
      "Ġsomebody": 4918,
      "Ġvicious": 4919,
      "Ġruin": 4920,
      "Ġneeding": 4921,
      "Ġagony": 4922,
      "Ġbox": 4923,
      "Ġbold": 4924,
      "ĠArbor": 4925,
      "ggy": 4926,
      "ggers": 4927,
      "ggles": 4928,
      "ĠGreyjoys": 4929,
      "Ġours": 4930,
      "Ġscru": 4931,
      "Ġscree": 4932,
      "Ġscum": 4933,
      "Ġscheming": 4934,
      "Ġscreen": 4935,
      "Ġplate": 4936,
      "Ġplann": 4937,
      "Ġplump": 4938,
      "Ġplaced": 4939,
      "Ġplatform": 4940,
      "ĠPyke": 4941,
      "Ġarmory": 4942,
      "ushing": 4943,
      "Ġafar": 4944,
      "Ġafich": 4945,
      "----------------------": 4946,
      "ulf": 4947,
      "ultip": 4948,
      "ĠUp": 4949,
      "ĠUpon": 4950,
      "ĠUrch": 4951,
      "ĠUntie": 4952,
      "Ġqual": 4953,
      "Ġlordship": 4954,
      "psite": 4955,
      "Ġclosed": 4956,
      "Ġexc": 4957,
      "Ġexpen": 4958,
      "Ġexhilarating": 4959,
      "Ġexhausted": 4960,
      "Ġoverlooks": 4961,
      "ics": 4962,
      "iced": 4963,
      "icip": 4964,
      "ichever": 4965,
      "Ġbloodied": 4966,
      "Ġbloodlines": 4967,
      "Ġbloodshed": 4968,
      "Ġsli": 4969,
      "Ġslit": 4970,
      "Ġslut": 4971,
      "Ġslicing": 4972,
      "Ġslaver": 4973,
      "Ġslavers": 4974,
      "Ġslashing": 4975,
      "ĠFork": 4976,
      "Ġprop": 4977,
      "Ġprostitute": 4978,
      "Ġstaring": 4979,
      "Ġstares": 4980,
      "Ġstarve": 4981,
      "Ġstarving": 4982,
      "ĠLucky": 4983,
      "Ġprinces": 4984,
      "Ġpress": 4985,
      "Ġpregn": 4986,
      "Ġprecious": 4987,
      "Ġprepare": 4988,
      "Ġpeas": 4989,
      "Ġridicul": 4990,
      "Ġtalked": 4991,
      "Ġsmile": 4992,
      "Ġsmashed": 4993,
      "Ġafterno": 4994,
      "Ġafterwards": 4995,
      "ounting": 4996,
      "Ġcalling": 4997,
      "Ġpost": 4998,
      "Ġpoppy": 4999,
      "igned": 5000,
      "Ġconst": 5001,
      "Ġmothers": 5002,
      "Ġbegan": 5003,
      "Ġbegun": 5004,
      "Ġstew": 5005,
      "Ġstead": 5006,
      "Ġstepping": 5007,
      "mmy": 5008,
      "Ġremind": 5009,
      "Ġremain": 5010,
      "Ġremove": 5011,
      "Ġrat": 5012,
      "Ġrace": 5013,
      "Ġcoach": 5014,
      "Ġcovers": 5015,
      "orasok": 5016,
      "Ġholdfast": 5017,
      "Ġgiant": 5018,
      "Ġgiggling": 5019,
      "Ġrealms": 5020,
      "Ġrealiz": 5021,
      "Ġrealize": 5022,
      "Ġmarriage": 5023,
      "Ġgreatness": 5024,
      "ĠGodswood": 5025,
      "ĠGodswife": 5026,
      "ĠQuiet": 5027,
      "SEPT": 5028,
      "Ġkneels": 5029,
      "harmed": 5030,
      "Ġcarriage": 5031,
      "Ġcaresses": 5032,
      "Ġdoors": 5033,
      "Ġdoorway": 5034,
      "Ġbedch": 5035,
      "Ġbedroom": 5036,
      "ĠShall": 5037,
      "Ġflock": 5038,
      "Ġflips": 5039,
      "Ġflogged": 5040,
      "ĠNorthmen": 5041,
      "Ġunf": 5042,
      "Ġunarm": 5043,
      "Ġunison": 5044,
      "Ġunharmed": 5045,
      "Ġhurting": 5046,
      "Ġdisarming": 5047,
      "Ġdisrespect": 5048,
      "gets": 5049,
      "oday": 5050,
      "Ġmighty": 5051,
      "ĠMole": 5052,
      "Ġsupport": 5053,
      "Ġblacksmith": 5054,
      "Ġimmed": 5055,
      "ĠInst": 5056,
      "ancer": 5057,
      "Ġbumps": 5058,
      "ĠLooks": 5059,
      "Ġglowing": 5060,
      "Ġglorified": 5061,
      "âĢĿ.": 5062,
      "âĢĿ?": 5063,
      "Ġhelped": 5064,
      "Ġsqueal": 5065,
      "Ġhoping": 5066,
      "Ġappropri": 5067,
      "Ġreturning": 5068,
      "Ġskills": 5069,
      "atedly": 5070,
      "Ġthoughts": 5071,
      "ĠEverybody": 5072,
      "Ġlaughter": 5073,
      "Ġfearing": 5074,
      "Ġdesert": 5075,
      "Ġcrowned": 5076,
      "Ġearth": 5077,
      "Ġearned": 5078,
      "Ġearlier": 5079,
      "Ġearns": 5080,
      "Ġassure": 5081,
      "Ġcompare": 5082,
      "Ġsends": 5083,
      "Ġbreaking": 5084,
      "Ġcheck": 5085,
      "Ġcheek": 5086,
      "Ġcheese": 5087,
      "Ġcarefully": 5088,
      "Ġarrival": 5089,
      "ressive": 5090,
      "Ġstayed": 5091,
      "Ġthroats": 5092,
      "Ġtreas": 5093,
      "Ġtremble": 5094,
      "Ġmurd": 5095,
      "Ġdaggers": 5096,
      "Ġgras": 5097,
      "Ġgrace": 5098,
      "Ġgranted": 5099,
      "Ġscreamed": 5100,
      "Ġelsewhere": 5101,
      "Ġpromises": 5102,
      "Ġvisibly": 5103,
      "Ġplayed": 5104,
      "Ġsinging": 5105,
      "Ġsleeps": 5106,
      "Ġsleepless": 5107,
      "Ġyoungest": 5108,
      "Ġfalling": 5109,
      "Ġreputation": 5110,
      "Ġsunset": 5111,
      "Street": 5112,
      "Ġtrace": 5113,
      "Ġtrade": 5114,
      "Ġtramp": 5115,
      "Ġtransl": 5116,
      "Ġfinished": 5117,
      "Ġpickpock": 5118,
      "Ġhalls": 5119,
      "Ġnearing": 5120,
      "Ġsooner": 5121,
      "-------------------------------------": 5122,
      "Ġsmaller": 5123,
      "shot": 5124,
      "shouting": 5125,
      "Ġordered": 5126,
      "Ġmessenger": 5127,
      "Ġkinder": 5128,
      "Ġwhorehouse": 5129,
      "Ġlearning": 5130,
      "Ġdefense": 5131,
      "Ġprotector": 5132,
      "Ġimpaled": 5133,
      "Ġimpregn": 5134,
      "Ġbadly": 5135,
      "Ġfuneral": 5136,
      "Ġfreeze": 5137,
      "Ġchain": 5138,
      "Ġchained": 5139,
      "Ġrecall": 5140,
      "Ġrecently": 5141,
      "Ġbelongings": 5142,
      "Ġpraying": 5143,
      "Ġprayed": 5144,
      "Ġaccused": 5145,
      "Ġcapture": 5146,
      "ĠRoad": 5147,
      "Ġactors": 5148,
      "Ġmissing": 5149,
      "Ġmisses": 5150,
      "Ġbooks": 5151,
      "Ġdrove": 5152,
      "Ġcats": 5153,
      "Ġconsent": 5154,
      "Ġconsole": 5155,
      "leasant": 5156,
      "Ġeasily": 5157,
      "Ġshuts": 5158,
      "Ġbrothels": 5159,
      "Ġtrusts": 5160,
      "aped": 5161,
      "Ġwilderness": 5162,
      "Ġguys": 5163,
      "ĠWithout": 5164,
      "ĠAttack": 5165,
      "Ġdecor": 5166,
      "Ġdeclare": 5167,
      "Ġchopped": 5168,
      "Ġseemed": 5169,
      "Ġjoins": 5170,
      "Ġservants": 5171,
      "Ġcleared": 5172,
      "eca": 5173,
      "genia": 5174,
      "Ġteaching": 5175,
      "Ġmadman": 5176,
      "Ġfucking": 5177,
      "Ġfucked": 5178,
      "Ġcounts": 5179,
      "ĠLefford": 5180,
      "Ġstopping": 5181,
      "Ġmerciful": 5182,
      "Ġdifference": 5183,
      "what": 5184,
      "Ġwritten": 5185,
      "Ġwatcher": 5186,
      "Ġsilk": 5187,
      "Ġbird": 5188,
      "Ġdouble": 5189,
      "Ġcoronation": 5190,
      "Ġhealed": 5191,
      "Ġpissed": 5192,
      "Ġpartner": 5193,
      "Ġparticul": 5194,
      "ĠAnyway": 5195,
      "Ġknocking": 5196,
      "ĠKnights": 5197,
      "Ġscars": 5198,
      "Ġclimbs": 5199,
      "Ġdefending": 5200,
      "Ġwounded": 5201,
      "Ġhills": 5202,
      "Ġpermiss": 5203,
      "Ġpainted": 5204,
      "Ġpleases": 5205,
      "Ġkissed": 5206,
      "Ġstraps": 5207,
      "Ġstraws": 5208,
      "Ġforgetful": 5209,
      "Ġliars": 5210,
      "Ġwearing": 5211,
      "Ġblessings": 5212,
      "Ġwarmer": 5213,
      "Ġtournaments": 5214,
      "clus": 5215,
      "claw": 5216,
      "singing": 5217,
      "udent": 5218,
      "Ġ30": 5219,
      "Ġtasteless": 5220,
      "Ġhiding": 5221,
      "Ġcells": 5222,
      "Ġinstead": 5223,
      "ĠGrandfather": 5224,
      "Ġraped": 5225,
      "Ġbreaks": 5226,
      "Ġescorting": 5227,
      "Ġescaped": 5228,
      "Ġbarely": 5229,
      "Ġbarrels": 5230,
      "Ġlineages": 5231,
      "Ġlaws": 5232,
      "Ġdistin": 5233,
      "Ġdisturbing": 5234,
      "Ġdistraught": 5235,
      "ĠTomard": 5236,
      "ĠTommen": 5237,
      "Ġthrown": 5238,
      "Ġgathers": 5239,
      "Ġpacked": 5240,
      "Ġinsp": 5241,
      "Ġinsisted": 5242,
      "Ġintend": 5243,
      "Ġinvol": 5244,
      "Ġinvite": 5245,
      "Ġinvade": 5246,
      "ĠAmeca": 5247,
      "Ġrebel": 5248,
      "Ġliked": 5249,
      "Ġswinging": 5250,
      "ĠGolden": 5251,
      "ĠSeeing": 5252,
      "Ġseriously": 5253,
      "Ġtribesmen": 5254,
      "Ġcrippled": 5255,
      "Ġdeserves": 5256,
      "Ġconfessed": 5257,
      "ibate": 5258,
      "mbly": 5259,
      "Ġtitle": 5260,
      "Ġaffront": 5261,
      "Ġmidget": 5262,
      "Ġlaying": 5263,
      "Ġcraw": 5264,
      "Ġpiece": 5265,
      "ĠAhh": 5266,
      "ĠMeanwhile": 5267,
      "Ġanswering": 5268,
      "Ġdefeats": 5269,
      "Ġspoiling": 5270,
      "Ġpointy": 5271,
      "Ġpossess": 5272,
      "Ġpossibly": 5273,
      "Ġconcerned": 5274,
      "Ġhelmet": 5275,
      "Ġskinny": 5276,
      "Ġcontinu": 5277,
      "Ġchairs": 5278,
      "Ġinteresting": 5279,
      "Ġinterested": 5280,
      "hoon": 5281,
      "peakable": 5282,
      "Ġ50": 5283,
      "Ġsimper": 5284,
      "Ġharmed": 5285,
      "Ġflee": 5286,
      "Ġfleet": 5287,
      "Ġfleeing": 5288,
      "ĠTHEON": 5289,
      "ĠBrave": 5290,
      "Ġpatrol": 5291,
      "Ġkicks": 5292,
      "Ġkicking": 5293,
      "Ġkicked": 5294,
      "Ġlights": 5295,
      "Ġjewel": 5296,
      "Ġawaiting": 5297,
      "Ġtracked": 5298,
      "Ġrecruit": 5299,
      "Ġcourtesies": 5300,
      "Ġsurprised": 5301,
      "Sub": 5302,
      "Ġqoy": 5303,
      "Ġqora": 5304,
      "Ġqorasok": 5305,
      "Ġhomes": 5306,
      "Ġdummy": 5307,
      "Ġcelibate": 5308,
      "Ġowes": 5309,
      "Ġoppon": 5310,
      "Ġbeheaded": 5311,
      "Ġpushes": 5312,
      "Ġpushing": 5313,
      "Ġpushed": 5314,
      "Ġshoot": 5315,
      "Ġshouts": 5316,
      "Ġshouting": 5317,
      "Ġshouted": 5318,
      "ĠRhaego": 5319,
      "queror": 5320,
      "Ġenjoying": 5321,
      "Ġprovided": 5322,
      "Ġprepared": 5323,
      "Ġpoisoned": 5324,
      "Ġcollapses": 5325,
      "Ġcounter": 5326,
      "Ġcounsel": 5327,
      "Ġcounters": 5328,
      "-----------------------------------------": 5329,
      "Ġloudly": 5330,
      "Ġhealthy": 5331,
      "Ġrebelled": 5332,
      "Ġinnocents": 5333,
      "Only": 5334,
      "Ġtemper": 5335,
      "Ġapart": 5336,
      "Ġwisdom": 5337,
      "Ġsickness": 5338,
      "resent": 5339,
      "Ġmutil": 5340,
      "Ġbrief": 5341,
      "Ġbreath": 5342,
      "Ġbreathing": 5343,
      "Ġbraiding": 5344,
      "Ġfresh": 5345,
      "Ġfreedom": 5346,
      "Ġoccurs": 5347,
      "Ġphase": 5348,
      "Ġpulled": 5349,
      "Ġnobleman": 5350,
      "Ġstairs": 5351,
      "ĠGlad": 5352,
      "Ġsharp": 5353,
      "Ġshared": 5354,
      "Ġsuffer": 5355,
      "Ġsuffered": 5356,
      "ĠExcept": 5357,
      "Ġquietly": 5358,
      "Ġthanks": 5359,
      "Ġextre": 5360,
      "Ġappointment": 5361,
      "Ġattempt": 5362,
      "Ġattempts": 5363,
      "Ġtravel": 5364,
      "Ġtraveled": 5365,
      "Ġunspeakable": 5366,
      "Ġconspired": 5367,
      "Ġconspiring": 5368,
      "Ġadmirable": 5369,
      "Ġconcerns": 5370,
      "Ġterrified": 5371,
      "ĠValyria": 5372,
      "Seeing": 5373,
      "Seemingly": 5374,
      "Ġ600": 5375,
      "Ġ80": 5376,
      "Ġtreated": 5377,
      "Ġmae": 5378,
      "Ġmajor": 5379,
      "Ġmistake": 5380,
      "Ġmentioned": 5381,
      "Ġburnt": 5382,
      "ĠSilence": 5383,
      "ĠSlowly": 5384,
      "Ġdrums": 5385,
      "Ġcruel": 5386,
      "Ġcolor": 5387,
      "ĠStrictly": 5388,
      "Ġheavy": 5389,
      "Ġheavily": 5390,
      "Ġthirsty": 5391,
      "ĠBalon": 5392,
      "identally": 5393,
      "Ġhistories": 5394,
      "Ġhammering": 5395,
      "Ġembro": 5396,
      "Ġembarrass": 5397,
      "ĠCouldn": 5398,
      "Ġsepton": 5399,
      "Ġshocked": 5400,
      "Ġancest": 5401,
      "Ġancient": 5402,
      "Ġantlers": 5403,
      "Ġanticip": 5404,
      "Ġvillages": 5405,
      "Ġfeathers": 5406,
      "Ġneedlework": 5407,
      "Ġpocket": 5408,
      "Ġpockets": 5409,
      "Ġfamilies": 5410,
      "Ġfamiliar": 5411,
      "Ġdirection": 5412,
      "Ġdescri": 5413,
      "Ġdescend": 5414,
      "Ġdespair": 5415,
      "Ġprivately": 5416,
      "Ġprivate": 5417,
      "Ġconsidered": 5418,
      "Ġinterrupt": 5419,
      "Ġinterrupting": 5420,
      "Ġdiscussion": 5421,
      "Ġinsults": 5422,
      "ĠBraavosi": 5423,
      "Ġaddressing": 5424,
      "Ġaddresses": 5425,
      "Ġsuccession": 5426,
      "Ġsuccessfully": 5427,
      "Baelish": 5428,
      "DANE": 5429,
      "Leo": 5430,
      "Littlefinger": 5431,
      "pointing": 5432,
      "Ġturtle": 5433,
      "Ġtrinkets": 5434,
      "Ġavenge": 5435,
      "Ġwoken": 5436,
      "Ġwrapped": 5437,
      "Ġsacred": 5438,
      "Ġsnaps": 5439,
      "Ġmainly": 5440,
      "Ġbranded": 5441,
      "Ġhoists": 5442,
      "Ġyellow": 5443,
      "ĠSummer": 5444,
      "ĠSoutherner": 5445,
      "Ġfierce": 5446,
      "Ġfrustrated": 5447,
      "Ġcampsite": 5448,
      "ĠTruly": 5449,
      "ĠLongclaw": 5450,
      "Ġgrotes": 5451,
      "Ġgalloping": 5452,
      "ĠBuild": 5453,
      "Ġpomp": 5454,
      "Ġinclin": 5455,
      "ĠMORDANE": 5456,
      "ĠDragon": 5457,
      "Ġstrangest": 5458,
      "Ġstretcher": 5459,
      "Ġnatural": 5460,
      "Ġnickname": 5461,
      "Ġunexpect": 5462,
      "ĠConqueror": 5463,
      "Ġreveal": 5464,
      "Ġliquid": 5465,
      "Ġangry": 5466,
      "Ġdetermined": 5467,
      "Ġriddles": 5468,
      "ĠRemember": 5469,
      "Ġoutlaws": 5470,
      "Ġsubject": 5471,
      "Ġjudge": 5472,
      "Ġbottom": 5473,
      "Ġscratch": 5474,
      "Ġplotting": 5475,
      "Ġexchange": 5476,
      "Ġexperience": 5477,
      "Ġambush": 5478,
      "Ġconvinces": 5479,
      "Ġconquerors": 5480,
      "Ġunpleasant": 5481,
      "Ġcomplaining": 5482,
      "Ġcompetitors": 5483,
      "Ġrepeatedly": 5484,
      "Ġpresume": 5485,
      "Ġtrader": 5486,
      "Ġgrabbed": 5487,
      "whispering": 5488,
      "Ġtroubled": 5489,
      "Ġdiscipline": 5490,
      "Ġpigeons": 5491,
      "Ġinstruct": 5492,
      "Ġmuscles": 5493,
      "Ġapologize": 5494,
      "Ġtownsfolk": 5495,
      "Ġspecifics": 5496,
      "Ġunsheath": 5497,
      "Ġestablish": 5498,
      "Ġopinions": 5499,
      "Ġkitchens": 5500,
      "ĠCaptain": 5501,
      "Ġcelebration": 5502,
      "Ġproclaims": 5503,
      "Arriving": 5504,
      "Dareon": 5505,
      "Jhiqu": 5506,
      "Meanwhile": 5507,
      "Outside": 5508,
      "Prostitute": 5509,
      "Returning": 5510,
      "Stopping": 5511,
      "Several": 5512,
      "Tomard": 5513,
      "WAYMAR": 5514,
      "breaker": 5515,
      "kycell": 5516,
      "kisses": 5517,
      "ossible": 5518,
      "rcella": 5519,
      "speaks": 5520,
      "yrosh": 5521,
      "Ġtarget": 5522,
      "arakhoon": 5523,
      "Ġwrote": 5524,
      "Ġwailing": 5525,
      "Ġskewer": 5526,
      "Ġsouthern": 5527,
      "reparing": 5528,
      "ĠmÃªlÃ©e": 5529,
      "Ġbacon": 5530,
      "Ġbranch": 5531,
      "Ġbeneath": 5532,
      "Ġbawdy": 5533,
      "ĠSurely": 5534,
      "ĠSTARK": 5535,
      "ĠSNOW": 5536,
      "Ġlooting": 5537,
      "Ġlungs": 5538,
      "Ġfalse": 5539,
      "Ġfolded": 5540,
      "Ġflesh": 5541,
      "Ġdestroy": 5542,
      "Ġdrastic": 5543,
      "ĠIrogenia": 5544,
      "Ġcustody": 5545,
      "Ġceremony": 5546,
      "Ġcreeping": 5547,
      "Ġomens": 5548,
      "ĠTysha": 5549,
      "ĠToyne": 5550,
      "Ġgesture": 5551,
      "Ġgazes": 5552,
      "ĠBharbo": 5553,
      "Ġpirate": 5554,
      "Ġpedestal": 5555,
      "Ġinherit": 5556,
      "Ġinvest": 5557,
      "imett": 5558,
      "ĠMarbrand": 5559,
      "ĠLannisport": 5560,
      "Ġonlookers": 5561,
      "Ġmeekly": 5562,
      "ĠDANY": 5563,
      "Ġstunted": 5564,
      "Ġforbidden": 5565,
      "ĠKnocking": 5566,
      "steps": 5567,
      "stabbing": 5568,
      "Ġnicely": 5569,
      "ĠCertainly": 5570,
      "ĠCitadel": 5571,
      "Ġreleases": 5572,
      "Ġlibrary": 5573,
      "Ġseventeen": 5574,
      "Ġshirtless": 5575,
      "Ġshudders": 5576,
      "Ġleagues": 5577,
      "Ġchickens": 5578,
      "ĠFarewell": 5579,
      "Ġrichest": 5580,
      "Ġsausage": 5581,
      "Ġoutrageous": 5582,
      "Ġarrangements": 5583,
      "Ġoffensive": 5584,
      "ĠShepherd": 5585,
      "Ġplanning": 5586,
      "Ġafichak": 5587,
      "-----------------------": 5588,
      "ultiple": 5589,
      "ĠUrchin": 5590,
      "Ġpregnant": 5591,
      "Ġridiculous": 5592,
      "Ġrealizes": 5593,
      "SEPTA": 5594,
      "Ġappropriate": 5595,
      "Ġpickpockets": 5596,
      "Ġparticularly": 5597,
      "Ġpermission": 5598,
      "Ġjewelry": 5599,
      "Ġqorasokh": 5600,
      "Ġembarrassed": 5601,
      "Ġgrotesqu": 5602,
      "Ġunexpected": 5603,
      "Jhiqui": 5604,
      "!?": 5605,
      "!...": 5606,
      "!\"...": 5607,
      ",,": 5608,
      ".âĢĻ": 5609,
      "::": 5610,
      "?]": 5611,
      "?...": 5612,
      "?âĢĿ": 5613,
      "AD": 5614,
      "Ag": 5615,
      "Al": 5616,
      "Ax": 5617,
      "Ass": 5618,
      "Another": 5619,
      "Ang": 5620,
      "Acc": 5621,
      "Again": 5622,
      "ACK": 5623,
      "Bl": 5624,
      "By": 5625,
      "Bes": 5626,
      "Bend": 5627,
      "Best": 5628,
      "Burn": 5629,
      "CON": 5630,
      "Coh": 5631,
      "Cregor": 5632,
      "Counting": 5633,
      "DS": 5634,
      "Dan": 5635,
      "Del": 5636,
      "Drogo": 5637,
      "Deep": 5638,
      "DRI": 5639,
      "During": 5640,
      "Dean": 5641,
      "Eh": 5642,
      "El": 5643,
      "Esc": 5644,
      "Eerie": 5645,
      "Fin": 5646,
      "For": 5647,
      "Fell": 5648,
      "From": 5649,
      "Fire": 5650,
      "First": 5651,
      "Frust": 5652,
      "Gord": 5653,
      "Get": 5654,
      "GER": 5655,
      "Greets": 5656,
      "Gregor": 5657,
      "Galbart": 5658,
      "His": 5659,
      "Hark": 5660,
      "Hear": 5661,
      "Hide": 5662,
      "Hmm": 5663,
      "Halder": 5664,
      "HING": 5665,
      "Help": 5666,
      "IE": 5667,
      "IT": 5668,
      "Is": 5669,
      "ION": 5670,
      "IRE": 5671,
      "ICE": 5672,
      "Ilyn": 5673,
      "JO": 5674,
      "Jar": 5675,
      "Jam": 5676,
      "JOFFREY": 5677,
      "Keep": 5678,
      "Khaleesi": 5679,
      "KEN": 5680,
      "Lu": 5681,
      "Ly": 5682,
      "Look": 5683,
      "LOR": 5684,
      "Lyanna": 5685,
      "LACK": 5686,
      "Mo": 5687,
      "May": 5688,
      "More": 5689,
      "Mary": 5690,
      "Make": 5691,
      "MON": 5692,
      "MAI": 5693,
      "Move": 5694,
      "MING": 5695,
      "MAE": 5696,
      "Mounting": 5697,
      "Near": 5698,
      "North": 5699,
      "OP": 5700,
      "Oh": 5701,
      "Or": 5702,
      "Over": 5703,
      "OIN": 5704,
      "Othor": 5705,
      "Ours": 5706,
      "OKING": 5707,
      "OICE": 5708,
      "OMING": 5709,
      "PP": 5710,
      "Please": 5711,
      "Pulls": 5712,
      "Play": 5713,
      "Poor": 5714,
      "Present": 5715,
      "Preparing": 5716,
      "QU": 5717,
      "Qu": 5718,
      "RY": 5719,
      "Re": 5720,
      "Rh": 5721,
      "Ry": 5722,
      "Right": 5723,
      "Rah": 5724,
      "Ride": 5725,
      "Rem": 5726,
      "Run": 5727,
      "Rhae": 5728,
      "Rise": 5729,
      "Rich": 5730,
      "Rhakharo": 5731,
      "Rickard": 5732,
      "Sur": 5733,
      "Send": 5734,
      "SRO": 5735,
      "Such": 5736,
      "Small": 5737,
      "STER": 5738,
      "Sweet": 5739,
      "TY": 5740,
      "Tru": 5741,
      "Take": 5742,
      "Tonight": 5743,
      "Tribesmen": 5744,
      "Today": 5745,
      "Tyrosh": 5746,
      "Timett": 5747,
      "TIT": 5748,
      "TOP": 5749,
      "Uh": 5750,
      "VER": 5751,
      "Vork": 5752,
      "Varly": 5753,
      "Voices": 5754,
      "WN": 5755,
      "War": 5756,
      "Was": 5757,
      "Well": 5758,
      "With": 5759,
      "Walk": 5760,
      "Wolf": 5761,
      "Wait": 5762,
      "Yes": 5763,
      "Yet": 5764,
      "].": 5765,
      "aan": 5766,
      "aerys": 5767,
      "aven": 5768,
      "aways": 5769,
      "aved": 5770,
      "awn": 5771,
      "afer": 5772,
      "bl": 5773,
      "bel": 5774,
      "bard": 5775,
      "bal": 5776,
      "bse": 5777,
      "bow": 5778,
      "bly": 5779,
      "bone": 5780,
      "bings": 5781,
      "barrow": 5782,
      "bors": 5783,
      "brant": 5784,
      "bute": 5785,
      "bby": 5786,
      "bowing": 5787,
      "broken": 5788,
      "bility": 5789,
      "cy": 5790,
      "cin": 5791,
      "can": 5792,
      "cas": 5793,
      "cle": 5794,
      "cers": 5795,
      "cust": 5796,
      "corn": 5797,
      "came": 5798,
      "cile": 5799,
      "cous": 5800,
      "cable": 5801,
      "cise": 5802,
      "cue": 5803,
      "city": 5804,
      "cale": 5805,
      "crying": 5806,
      "camp": 5807,
      "cuse": 5808,
      "cial": 5809,
      "cattered": 5810,
      "di": 5811,
      "dra": 5812,
      "dent": 5813,
      "dem": 5814,
      "drink": 5815,
      "dance": 5816,
      "dens": 5817,
      "door": 5818,
      "eg": 5819,
      "ew": 5820,
      "ez": 5821,
      "eer": 5822,
      "eed": 5823,
      "eas": 5824,
      "eve": 5825,
      "eves": 5826,
      "eem": 5827,
      "eous": 5828,
      "eath": 5829,
      "ease": 5830,
      "egor": 5831,
      "eye": 5832,
      "ewer": 5833,
      "eacher": 5834,
      "ealous": 5835,
      "effon": 5836,
      "fo": 5837,
      "for": 5838,
      "fan": 5839,
      "fri": 5840,
      "fall": 5841,
      "fers": 5842,
      "fess": 5843,
      "face": 5844,
      "fem": 5845,
      "fto": 5846,
      "fire": 5847,
      "fere": 5848,
      "fice": 5849,
      "fty": 5850,
      "fact": 5851,
      "fingers": 5852,
      "ficul": 5853,
      "gi": 5854,
      "gre": 5855,
      "gher": 5856,
      "gand": 5857,
      "gru": 5858,
      "good": 5859,
      "gist": 5860,
      "gands": 5861,
      "gons": 5862,
      "gins": 5863,
      "gment": 5864,
      "gues": 5865,
      "hou": 5866,
      "how": 5867,
      "hand": 5868,
      "hall": 5869,
      "hven": 5870,
      "hile": 5871,
      "hip": 5872,
      "hhaz": 5873,
      "hamed": 5874,
      "ien": 5875,
      "ias": 5876,
      "iant": 5877,
      "iately": 5878,
      "ives": 5879,
      "iest": 5880,
      "ius": 5881,
      "iated": 5882,
      "ivers": 5883,
      "iants": 5884,
      "ipper": 5885,
      "iggy": 5886,
      "just": 5887,
      "kay": 5888,
      "kins": 5889,
      "kulls": 5890,
      "kirts": 5891,
      "lm": 5892,
      "lon": 5893,
      "lor": 5894,
      "las": 5895,
      "lel": 5896,
      "lys": 5897,
      "lid": 5898,
      "lace": 5899,
      "lest": 5900,
      "lous": 5901,
      "lation": 5902,
      "lass": 5903,
      "laving": 5904,
      "lock": 5905,
      "liness": 5906,
      "lieves": 5907,
      "lik": 5908,
      "licking": 5909,
      "lped": 5910,
      "ma": 5911,
      "mh": 5912,
      "mu": 5913,
      "mes": 5914,
      "mel": 5915,
      "mal": 5916,
      "mut": 5917,
      "mour": 5918,
      "mil": 5919,
      "mpt": 5920,
      "maker": 5921,
      "mago": 5922,
      "murs": 5923,
      "mounts": 5924,
      "nce": 5925,
      "ners": 5926,
      "nie": 5927,
      "nsel": 5928,
      "nition": 5929,
      "nels": 5930,
      "nades": 5931,
      "ov": 5932,
      "oat": 5933,
      "other": 5934,
      "overy": 5935,
      "ots": 5936,
      "ohere": 5937,
      "oison": 5938,
      "oors": 5939,
      "ogging": 5940,
      "oby": 5941,
      "oking": 5942,
      "pat": 5943,
      "pid": 5944,
      "ply": 5945,
      "pun": 5946,
      "ples": 5947,
      "pable": 5948,
      "post": 5949,
      "pause": 5950,
      "press": 5951,
      "pany": 5952,
      "pulls": 5953,
      "pends": 5954,
      "pute": 5955,
      "pended": 5956,
      "picking": 5957,
      "panions": 5958,
      "pushing": 5959,
      "poking": 5960,
      "rd": 5961,
      "rin": 5962,
      "ror": 5963,
      "rat": 5964,
      "rad": 5965,
      "rac": 5966,
      "rut": 5967,
      "rist": 5968,
      "ract": 5969,
      "rison": 5970,
      "rates": 5971,
      "ser": 5972,
      "sit": 5973,
      "sle": 5974,
      "sal": 5975,
      "sst": 5976,
      "sion": 5977,
      "shing": 5978,
      "sue": 5979,
      "swood": 5980,
      "sided": 5981,
      "spers": 5982,
      "skycell": 5983,
      "slaving": 5984,
      "try": 5985,
      "twin": 5986,
      "tling": 5987,
      "tier": 5988,
      "teach": 5989,
      "tens": 5990,
      "treason": 5991,
      "taps": 5992,
      "tstone": 5993,
      "ub": 5994,
      "und": 5995,
      "uri": 5996,
      "ule": 5997,
      "uep": 5998,
      "uess": 5999,
      "ugo": 6000,
      "uding": 6001,
      "uation": 6002,
      "uade": 6003,
      "under": 6004,
      "uage": 6005,
      "ude": 6006,
      "uries": 6007,
      "ucous": 6008,
      "var": 6009,
      "vies": 6010,
      "vous": 6011,
      "vot": 6012,
      "vag": 6013,
      "vals": 6014,
      "vaged": 6015,
      "vades": 6016,
      "viving": 6017,
      "vidly": 6018,
      "vantage": 6019,
      "whe": 6020,
      "wit": 6021,
      "wom": 6022,
      "wound": 6023,
      "water": 6024,
      "wift": 6025,
      "wolves": 6026,
      "wels": 6027,
      "worms": 6028,
      "wrest": 6029,
      "wright": 6030,
      "wives": 6031,
      "xious": 6032,
      "yor": 6033,
      "yes": 6034,
      "yly": 6035,
      "year": 6036,
      "yto": 6037,
      "yurt": 6038,
      "zz": 6039,
      "zing": 6040,
      "zard": 6041,
      "zet": 6042,
      "zik": 6043,
      "Ġ/": 6044,
      "Ġ7": 6045,
      "Ġer": 6046,
      "Ġing": 6047,
      "Ġll": 6048,
      "Ġve": 6049,
      "Ġver": 6050,
      "Ġrou": 6051,
      "Ġess": 6052,
      "Ġround": 6053,
      "Ġice": 6054,
      "Ġrough": 6055,
      "Ġought": 6056,
      "ĠRod": 6057,
      "Ġ000": 6058,
      "Ġrange": 6059,
      "Ġtis": 6060,
      "Ġtro": 6061,
      "Ġtone": 6062,
      "Ġtend": 6063,
      "Ġtil": 6064,
      "Ġtear": 6065,
      "Ġtide": 6066,
      "Ġtame": 6067,
      "Ġtus": 6068,
      "Ġtort": 6069,
      "Ġtale": 6070,
      "Ġtact": 6071,
      "Ġtends": 6072,
      "Ġtips": 6073,
      "Ġtended": 6074,
      "Ġtiring": 6075,
      "Ġtumble": 6076,
      "Ġtaxes": 6077,
      "Ġtapping": 6078,
      "Ġteacher": 6079,
      "Ġtipper": 6080,
      "Ġtub": 6081,
      "Ġano": 6082,
      "Ġaut": 6083,
      "Ġair": 6084,
      "Ġack": 6085,
      "Ġaud": 6086,
      "Ġaunt": 6087,
      "Ġavo": 6088,
      "Ġahhaz": 6089,
      "Ġavidly": 6090,
      "ina": 6091,
      "inish": 6092,
      "inion": 6093,
      "inue": 6094,
      "inted": 6095,
      "inals": 6096,
      "incing": 6097,
      "incial": 6098,
      "oup": 6099,
      "ouds": 6100,
      "ounce": 6101,
      "aro": 6102,
      "aring": 6103,
      "arve": 6104,
      "arst": 6105,
      "arch": 6106,
      "arely": 6107,
      "arts": 6108,
      "aries": 6109,
      "arger": 6110,
      "arlier": 6111,
      "arian": 6112,
      "era": 6113,
      "erk": 6114,
      "ern": 6115,
      "erve": 6116,
      "erce": 6117,
      "erion": 6118,
      "eration": 6119,
      "erence": 6120,
      "ermen": 6121,
      "ermith": 6122,
      "ergy": 6123,
      "ercise": 6124,
      "onds": 6125,
      "onic": 6126,
      "onstrous": 6127,
      "onnades": 6128,
      "Ġward": 6129,
      "Ġwet": 6130,
      "Ġwand": 6131,
      "Ġwore": 6132,
      "Ġworm": 6133,
      "Ġworn": 6134,
      "Ġwiel": 6135,
      "Ġwip": 6136,
      "Ġwret": 6137,
      "Ġworms": 6138,
      "Ġwaits": 6139,
      "Ġwifes": 6140,
      "Ġsin": 6141,
      "Ġsor": 6142,
      "Ġsle": 6143,
      "Ġsill": 6144,
      "Ġsow": 6145,
      "Ġsoo": 6146,
      "Ġsly": 6147,
      "Ġsra": 6148,
      "Ġsore": 6149,
      "Ġsour": 6150,
      "Ġsust": 6151,
      "Ġsurn": 6152,
      "Ġsings": 6153,
      "Ġsane": 6154,
      "Ġsins": 6155,
      "Ġsang": 6156,
      "Ġsally": 6157,
      "Ġsib": 6158,
      "Ġsorts": 6159,
      "Ġsowing": 6160,
      "Ġsoup": 6161,
      "orter": 6162,
      "orld": 6163,
      "orse": 6164,
      "oros": 6165,
      "oric": 6166,
      "orals": 6167,
      "orcas": 6168,
      "anha": 6169,
      "anion": 6170,
      "anity": 6171,
      "isrespect": 6172,
      "isgi": 6173,
      "rel": 6174,
      "rent": 6175,
      "resh": 6176,
      "rectly": 6177,
      "repid": 6178,
      "Ġmas": 6179,
      "Ġmim": 6180,
      "Ġmal": 6181,
      "Ġmour": 6182,
      "Ġmace": 6183,
      "Ġmaester": 6184,
      "Ġmink": 6185,
      "Ġmau": 6186,
      "Ġmere": 6187,
      "Ġmate": 6188,
      "Ġmale": 6189,
      "Ġmiser": 6190,
      "Ġmass": 6191,
      "Ġmaces": 6192,
      "Ġmap": 6193,
      "Ġmaker": 6194,
      "Ġmask": 6195,
      "Ġmumb": 6196,
      "Ġmug": 6197,
      "Ġmultiple": 6198,
      "Ġmorals": 6199,
      "Ġmisgi": 6200,
      "Ġbark": 6201,
      "Ġbore": 6202,
      "Ġbind": 6203,
      "Ġbun": 6204,
      "Ġbull": 6205,
      "Ġbald": 6206,
      "Ġbends": 6207,
      "Ġbending": 6208,
      "Ġborrow": 6209,
      "Ġbored": 6210,
      "Ġbounc": 6211,
      "Ġhat": 6212,
      "Ġhal": 6213,
      "Ġhoo": 6214,
      "Ġhood": 6215,
      "Ġhire": 6216,
      "Ġhun": 6217,
      "Ġhol": 6218,
      "Ġhig": 6219,
      "Ġhates": 6220,
      "Ġharms": 6221,
      "Ġhiring": 6222,
      "Ġhunch": 6223,
      "Ġhaste": 6224,
      "atit": 6225,
      "atth": 6226,
      "attle": 6227,
      "ative": 6228,
      "athed": 6229,
      "atonic": 6230,
      "inging": 6231,
      "Ġye": 6232,
      "Ġyer": 6233,
      "Ġyeah": 6234,
      "ena": 6235,
      "ensel": 6236,
      "enters": 6237,
      "entering": 6238,
      "entered": 6239,
      "enged": 6240,
      "enerous": 6241,
      "ength": 6242,
      "encing": 6243,
      "ennels": 6244,
      "llis": 6245,
      "llute": 6246,
      "llmaker": 6247,
      "Ġyouth": 6248,
      "ĠSim": 6249,
      "ĠSur": 6250,
      "ĠSong": 6251,
      "ĠSound": 6252,
      "ĠSleep": 6253,
      "ĠSaving": 6254,
      "ĠSaid": 6255,
      "ĠSmith": 6256,
      "ĠSpare": 6257,
      "ĠSweet": 6258,
      "ĠSkycell": 6259,
      "ĠSTOP": 6260,
      "ĠSaved": 6261,
      "ĠScattered": 6262,
      "ĠSkulls": 6263,
      "ĠSwift": 6264,
      "Ġlur": 6265,
      "Ġlust": 6266,
      "Ġlron": 6267,
      "Ġlane": 6268,
      "Ġlang": 6269,
      "Ġlmp": 6270,
      "Ġlance": 6271,
      "Ġlum": 6272,
      "Ġlap": 6273,
      "Ġlung": 6274,
      "Ġlines": 6275,
      "Ġlunch": 6276,
      "Ġlances": 6277,
      "Ġlarger": 6278,
      "Ġlength": 6279,
      "Ġtoe": 6280,
      "Ġtow": 6281,
      "Ġtoll": 6282,
      "Ġtoys": 6283,
      "Ġtoady": 6284,
      "Ġtoken": 6285,
      "Ġtomb": 6286,
      "Ġtowel": 6287,
      "Ġtome": 6288,
      "Ġfac": 6289,
      "Ġfut": 6290,
      "Ġfra": 6291,
      "Ġfru": 6292,
      "Ġfab": 6293,
      "Ġfate": 6294,
      "Ġfond": 6295,
      "Ġfade": 6296,
      "Ġfaking": 6297,
      "Ġfarm": 6298,
      "Ġfending": 6299,
      "Ġfills": 6300,
      "Ġfades": 6301,
      "Ġfacing": 6302,
      "Ġfury": 6303,
      "Ġfences": 6304,
      "Ġfetch": 6305,
      "Ġfilth": 6306,
      "Ġfulf": 6307,
      "Ġfencing": 6308,
      "Ġdom": 6309,
      "Ġdri": 6310,
      "Ġdust": 6311,
      "Ġdrogo": 6312,
      "Ġdus": 6313,
      "Ġdice": 6314,
      "Ġdull": 6315,
      "Ġdign": 6316,
      "Ġdwar": 6317,
      "Ġdutiful": 6318,
      "Ġdining": 6319,
      "Ġdrank": 6320,
      "Ġdirts": 6321,
      "ĠIS": 6322,
      "ĠIce": 6323,
      "Ġcas": 6324,
      "Ġcro": 6325,
      "Ġcad": 6326,
      "Ġcoo": 6327,
      "Ġcent": 6328,
      "Ġcook": 6329,
      "Ġcake": 6330,
      "Ġcong": 6331,
      "Ġcorn": 6332,
      "Ġcous": 6333,
      "Ġcaves": 6334,
      "Ġcause": 6335,
      "Ġcower": 6336,
      "Ġcured": 6337,
      "Ġcurs": 6338,
      "Ġceas": 6339,
      "Ġcrad": 6340,
      "Ġcentered": 6341,
      "ited": 6342,
      "itles": 6343,
      "itation": 6344,
      "itably": 6345,
      "itching": 6346,
      "ndle": 6347,
      "Ġoh": 6348,
      "Ġoaf": 6349,
      "Ġoint": 6350,
      "Ġobse": 6351,
      "Ġokay": 6352,
      "ĠTill": 6353,
      "ĠTook": 6354,
      "ĠTour": 6355,
      "ĠTrou": 6356,
      "ĠTem": 6357,
      "ĠTeach": 6358,
      "ĠTried": 6359,
      "ĠTumb": 6360,
      "ĠTouch": 6361,
      "ĠTaste": 6362,
      "ĠToday": 6363,
      "ĠTyrosh": 6364,
      "ĠTimett": 6365,
      "ĠTHING": 6366,
      "ĠTyto": 6367,
      "ede": 6368,
      "edy": 6369,
      "edged": 6370,
      "ĠLad": 6371,
      "ĠLess": 6372,
      "ĠLos": 6373,
      "ĠLaugh": 6374,
      "ĠLater": 6375,
      "ĠLoyal": 6376,
      "ĠLOR": 6377,
      "ĠLamb": 6378,
      "ĠLover": 6379,
      "ĠLiege": 6380,
      "ĠLION": 6381,
      "noying": 6382,
      "Ġoft": 6383,
      "ĠStand": 6384,
      "ĠStur": 6385,
      "ĠStood": 6386,
      "ĠStupid": 6387,
      "ĠStreet": 6388,
      "ĠStrange": 6389,
      "ĠSteel": 6390,
      "ĠSteffon": 6391,
      "ĠStarve": 6392,
      "ĠStern": 6393,
      "terious": 6394,
      "Ġheel": 6395,
      "Ġheight": 6396,
      "Ġheaves": 6397,
      "Ġhesit": 6398,
      "asil": 6399,
      "ashes": 6400,
      "asions": 6401,
      "ascin": 6402,
      "Ġthri": 6403,
      "Ġthigh": 6404,
      "Ġthread": 6405,
      "Ġthrones": 6406,
      "Ġthunder": 6407,
      "arks": 6408,
      "oming": 6409,
      "omit": 6410,
      "ombs": 6411,
      "omfort": 6412,
      "Ġgard": 6413,
      "Ġgran": 6414,
      "Ġgear": 6415,
      "Ġgul": 6416,
      "Ġgang": 6417,
      "Ġgamb": 6418,
      "Ġgains": 6419,
      "Ġgarden": 6420,
      "Ġgushing": 6421,
      "Ġghou": 6422,
      "ĠWed": 6423,
      "ĠWel": 6424,
      "ĠWood": 6425,
      "ĠWine": 6426,
      "ĠWere": 6427,
      "ĠWorth": 6428,
      "ĠWolf": 6429,
      "ĠWiz": 6430,
      "ĠWanted": 6431,
      "ĠWitch": 6432,
      "ĠWidow": 6433,
      "ĠWOL": 6434,
      "ĠWorld": 6435,
      "ric": 6436,
      "rider": 6437,
      "rible": 6438,
      "riment": 6439,
      "rified": 6440,
      "rieve": 6441,
      "rifice": 6442,
      "rigands": 6443,
      "vement": 6444,
      "velous": 6445,
      "veyor": 6446,
      "ĠBit": 6447,
      "ĠBel": 6448,
      "ĠBad": 6449,
      "ĠBay": 6450,
      "ĠBir": 6451,
      "ĠBend": 6452,
      "ĠBear": 6453,
      "ĠBeen": 6454,
      "ĠBRO": 6455,
      "ĠBann": 6456,
      "ĠBAL": 6457,
      "ĠBAS": 6458,
      "ĠBoys": 6459,
      "ĠBeric": 6460,
      "ĠBased": 6461,
      "ĠBAE": 6462,
      "ĠBLO": 6463,
      "ĠBLACK": 6464,
      "ĠBorcas": 6465,
      "ĠBattle": 6466,
      "ĠBasil": 6467,
      "ĠBrigands": 6468,
      "Ġbeet": 6469,
      "Ġbely": 6470,
      "Ġbeha": 6471,
      "Ġbehal": 6472,
      "Ġbegg": 6473,
      "Ġbeats": 6474,
      "Ġbecom": 6475,
      "Ġbegged": 6476,
      "Ġbehold": 6477,
      "Ġbevy": 6478,
      "Ġbecame": 6479,
      "Ġbefri": 6480,
      "Ġpan": 6481,
      "Ġpit": 6482,
      "Ġpad": 6483,
      "Ġpal": 6484,
      "Ġpru": 6485,
      "Ġpear": 6486,
      "Ġpau": 6487,
      "Ġpatch": 6488,
      "Ġpol": 6489,
      "Ġpose": 6490,
      "Ġpound": 6491,
      "Ġport": 6492,
      "Ġpure": 6493,
      "Ġpity": 6494,
      "Ġpage": 6495,
      "Ġpats": 6496,
      "Ġpiles": 6497,
      "Ġpopul": 6498,
      "Ġpoured": 6499,
      "Ġpiling": 6500,
      "Ġpitch": 6501,
      "Ġpacing": 6502,
      "Ġpops": 6503,
      "Ġpaper": 6504,
      "Ġpawn": 6505,
      "Ġink": 6506,
      "Ġinqu": 6507,
      "Ġinfe": 6508,
      "Ġinde": 6509,
      "Ġinev": 6510,
      "Ġinvent": 6511,
      "Ġinjust": 6512,
      "eld": 6513,
      "eling": 6514,
      "elve": 6515,
      "elugo": 6516,
      "legged": 6517,
      "leena": 6518,
      "ĠApp": 6519,
      "ĠAron": 6520,
      "ĠAbs": 6521,
      "ĠAway": 6522,
      "ĠAcc": 6523,
      "ĠAddam": 6524,
      "ĠAcorn": 6525,
      "ĠAgre": 6526,
      "ĠAlas": 6527,
      "ĠAleena": 6528,
      "imen": 6529,
      "imely": 6530,
      "impses": 6531,
      "imbly": 6532,
      "impun": 6533,
      "roz": 6534,
      "roll": 6535,
      "rols": 6536,
      "robably": 6537,
      "roval": 6538,
      "rophe": 6539,
      "rovement": 6540,
      "ghold": 6541,
      "ghole": 6542,
      "ĠMan": 6543,
      "ĠMac": 6544,
      "ĠMind": 6545,
      "ĠMink": 6546,
      "ĠMist": 6547,
      "ĠMuch": 6548,
      "ĠMart": 6549,
      "ĠMeet": 6550,
      "ĠMery": 6551,
      "ĠMaster": 6552,
      "ĠMud": 6553,
      "ĠMelt": 6554,
      "ĠMhaegen": 6555,
      "ĠMik": 6556,
      "ĠMultiple": 6557,
      "ĠMmh": 6558,
      "ĠMonstrous": 6559,
      "ĠMatth": 6560,
      "ĠYah": 6561,
      "Ġnobody": 6562,
      "Ġnodding": 6563,
      "Ġnobility": 6564,
      "Ġnoxious": 6565,
      "ordance": 6566,
      "ĠHm": 6567,
      "ĠHim": 6568,
      "ĠHard": 6569,
      "ĠHal": 6570,
      "ĠHam": 6571,
      "ĠHome": 6572,
      "ĠHide": 6573,
      "ĠHos": 6574,
      "ĠHigh": 6575,
      "ĠHated": 6576,
      "ĠHarb": 6577,
      "ĠHaven": 6578,
      "ĠHother": 6579,
      "ĠHorse": 6580,
      "ĠHeld": 6581,
      "ards": 6582,
      "arded": 6583,
      "etrate": 6584,
      "Ġkid": 6585,
      "Ġkeen": 6586,
      "Ġkennels": 6587,
      "ads": 6588,
      "aded": 6589,
      "adies": 6590,
      "adows": 6591,
      "adingly": 6592,
      "adsword": 6593,
      "advantage": 6594,
      "acter": 6595,
      "acle": 6596,
      "acch": 6597,
      "acul": 6598,
      "acious": 6599,
      "accust": 6600,
      "acombs": 6601,
      "alord": 6602,
      "aliate": 6603,
      "ĠYoung": 6604,
      "ĠLance": 6605,
      "Ġmember": 6606,
      "Ġmeals": 6607,
      "Ġmeadow": 6608,
      "ĠDay": 6609,
      "ĠDif": 6610,
      "ĠDire": 6611,
      "ĠDun": 6612,
      "ĠDesi": 6613,
      "ĠDarling": 6614,
      "ĠDisc": 6615,
      "ĠDancer": 6616,
      "ĠDIE": 6617,
      "ĠDeath": 6618,
      "ĠDisrespect": 6619,
      "Ġstark": 6620,
      "Ġstut": 6621,
      "Ġstam": 6622,
      "Ġstout": 6623,
      "Ġstorm": 6624,
      "Ġstalk": 6625,
      "Ġstil": 6626,
      "Ġstron": 6627,
      "Ġstun": 6628,
      "Ġstol": 6629,
      "Ġsteep": 6630,
      "Ġstakes": 6631,
      "Ġstation": 6632,
      "Ġstream": 6633,
      "Ġstage": 6634,
      "Ġstance": 6635,
      "Ġstamp": 6636,
      "Ġstrid": 6637,
      "Ġstud": 6638,
      "Ġstones": 6639,
      "Ġstumb": 6640,
      "Ġstrate": 6641,
      "Ġstyles": 6642,
      "Ġstrut": 6643,
      "Ġstitching": 6644,
      "seen": 6645,
      "seated": 6646,
      "sewhere": 6647,
      "seye": 6648,
      "semble": 6649,
      "sembly": 6650,
      "Ġitself": 6651,
      "akh": 6652,
      "aki": 6653,
      "akaro": 6654,
      "oward": 6655,
      "owery": 6656,
      "Ġforge": 6657,
      "Ġforty": 6658,
      "Ġformer": 6659,
      "Ġforcing": 6660,
      "Ġformal": 6661,
      "idst": 6662,
      "idant": 6663,
      "idic": 6664,
      "idery": 6665,
      "Ġwhips": 6666,
      "Ġwhored": 6667,
      "Ġwhoring": 6668,
      "Ġwhiff": 6669,
      "Ġwhispers": 6670,
      "Ġwhichever": 6671,
      "ĠKrak": 6672,
      "ĠKne": 6673,
      "ĠKash": 6674,
      "ĠKarst": 6675,
      "still": 6676,
      "stair": 6677,
      "stained": 6678,
      "stract": 6679,
      "starts": 6680,
      "ĠNO": 6681,
      "ĠNem": 6682,
      "ĠName": 6683,
      "ĠNect": 6684,
      "ĠNik": 6685,
      "ĠNonsense": 6686,
      "ĠNelugo": 6687,
      "ayjoy": 6688,
      "verse": 6689,
      "lyvar": 6690,
      "ghtens": 6691,
      "this": 6692,
      "thous": 6693,
      "thus": 6694,
      "though": 6695,
      "Ġnur": 6696,
      "Ġnest": 6697,
      "Ġnave": 6698,
      "Ġnav": 6699,
      "Ġnail": 6700,
      "Ġnations": 6701,
      "Ġnimbly": 6702,
      "Ġham": 6703,
      "Ġhail": 6704,
      "Ġhairl": 6705,
      "utes": 6706,
      "utely": 6707,
      "utish": 6708,
      "utching": 6709,
      "irm": 6710,
      "irgins": 6711,
      "irzet": 6712,
      "aming": 6713,
      "amine": 6714,
      "amber": 6715,
      "amount": 6716,
      "amless": 6717,
      "Ġunt": 6718,
      "Ġurch": 6719,
      "Ġuntie": 6720,
      "Ġupper": 6721,
      "iths": 6722,
      "ryon": 6723,
      "Ġeve": 6724,
      "Ġeel": 6725,
      "Ġeff": 6726,
      "Ġeag": 6727,
      "Ġemer": 6728,
      "Ġeerie": 6729,
      "Ġempt": 6730,
      "Ġevades": 6731,
      "ĠGame": 6732,
      "ĠGun": 6733,
      "ĠGate": 6734,
      "ĠGAR": 6735,
      "ĠGinger": 6736,
      "ĠGently": 6737,
      "ĠGREY": 6738,
      "ĠGhis": 6739,
      "ĠGOL": 6740,
      "ĠGiving": 6741,
      "ĠGyles": 6742,
      "ĠGalbart": 6743,
      "ĠGiants": 6744,
      "ĠGuess": 6745,
      "ĠGenerous": 6746,
      "Ġdoom": 6747,
      "Ġdoomed": 6748,
      "Ġdollmaker": 6749,
      "nowledge": 6750,
      "ĠCha": 6751,
      "ĠCast": 6752,
      "ĠCru": 6753,
      "ĠCame": 6754,
      "ĠCot": 6755,
      "ĠCRO": 6756,
      "ĠCRI": 6757,
      "ĠCross": 6758,
      "ĠCoin": 6759,
      "ĠCalm": 6760,
      "ĠCunt": 6761,
      "ĠCats": 6762,
      "ĠCities": 6763,
      "ĠCOMING": 6764,
      "ĠCuri": 6765,
      "ĠCerce": 6766,
      "ĠCoward": 6767,
      "Ġreck": 6768,
      "Ġreven": 6769,
      "Ġrewards": 6770,
      "Ġreins": 6771,
      "Ġrefer": 6772,
      "Ġreigned": 6773,
      "Ġrelieves": 6774,
      "Ġreenters": 6775,
      "Ġreeling": 6776,
      "Ġwasting": 6777,
      "Ġwashed": 6778,
      "Ġwasted": 6779,
      "Ġashamed": 6780,
      "Ġassembly": 6781,
      "Ġlift": 6782,
      "Ġlighten": 6783,
      "Ġlizard": 6784,
      "antis": 6785,
      "outs": 6786,
      "therwise": 6787,
      "Ġseal": 6788,
      "Ġsewn": 6789,
      "Ġsevers": 6790,
      "Ġseason": 6791,
      "Ġsepar": 6792,
      "Ġsealed": 6793,
      "Ġseamless": 6794,
      "ĠWhores": 6795,
      "ĠWhichever": 6796,
      "chop": 6797,
      "child": 6798,
      "chiel": 6799,
      "chonel": 6800,
      "chief": 6801,
      "dden": 6802,
      "ddess": 6803,
      "ĠBaratheons": 6804,
      "ightly": 6805,
      "ackout": 6806,
      "ackass": 6807,
      "ĠJey": 6808,
      "ĠJORAH": 6809,
      "ĠJoe": 6810,
      "ĠJafer": 6811,
      "ĠJealous": 6812,
      "ĠJoby": 6813,
      "alling": 6814,
      "allow": 6815,
      "allied": 6816,
      "alley": 6817,
      "allenged": 6818,
      "Ġnoted": 6819,
      "Ġnotions": 6820,
      "Ġnotices": 6821,
      "Ġnoticed": 6822,
      "rax": 6823,
      "rays": 6824,
      "rapt": 6825,
      "raph": 6826,
      "ravag": 6827,
      "urb": 6828,
      "urous": 6829,
      "Ġherd": 6830,
      "Ġherbal": 6831,
      "Ġshark": 6832,
      "Ġshore": 6833,
      "Ġshook": 6834,
      "Ġshake": 6835,
      "Ġshakes": 6836,
      "Ġshiver": 6837,
      "Ġshred": 6838,
      "Ġshores": 6839,
      "Ġshaving": 6840,
      "Ġshap": 6841,
      "Ġshower": 6842,
      "Ġshining": 6843,
      "Ġshreds": 6844,
      "Ġshattered": 6845,
      "Ġshields": 6846,
      "Ġshyly": 6847,
      "Ġshorter": 6848,
      "Ġshadows": 6849,
      "Ġneat": 6850,
      "Ġneigh": 6851,
      "Ġnecess": 6852,
      "Ġnephe": 6853,
      "ĠHear": 6854,
      "ĠHeward": 6855,
      "ĠHeav": 6856,
      "ĠHeads": 6857,
      "Ġarea": 6858,
      "ĠTarlys": 6859,
      "ential": 6860,
      "entee": 6861,
      "ify": 6862,
      "ifty": 6863,
      "Ġgoings": 6864,
      "Ġgoats": 6865,
      "Ġgoddess": 6866,
      "haan": 6867,
      "hagar": 6868,
      "cepts": 6869,
      "ceased": 6870,
      "asts": 6871,
      "astoe": 6872,
      "astrophe": 6873,
      "Ġweed": 6874,
      "Ġweak": 6875,
      "Ġweary": 6876,
      "Ġwept": 6877,
      "rupt": 6878,
      "ructed": 6879,
      "ooding": 6880,
      "cker": 6881,
      "cken": 6882,
      "cket": 6883,
      "Ġmanure": 6884,
      "Ġmanage": 6885,
      "Ġmanned": 6886,
      "Ġmanhood": 6887,
      "Ġmansion": 6888,
      "...\"": 6889,
      "...?": 6890,
      "ĠThreat": 6891,
      "ĠThous": 6892,
      "ĠThirt": 6893,
      "ĠThrones": 6894,
      "ĠThoros": 6895,
      "Ġknowingly": 6896,
      "Ġanger": 6897,
      "Ġanew": 6898,
      "Ġannoying": 6899,
      "Ġanhaan": 6900,
      "Ġalley": 6901,
      "ĠPack": 6902,
      "ĠPour": 6903,
      "ĠPain": 6904,
      "ĠPetyr": 6905,
      "ĠPlay": 6906,
      "ĠPoor": 6907,
      "ĠPork": 6908,
      "ĠPaper": 6909,
      "ĠPreparing": 6910,
      "ĠPOIN": 6911,
      "ĠPiggy": 6912,
      "ĠPoison": 6913,
      "ĠPsst": 6914,
      "ĠProbably": 6915,
      "ĠDog": 6916,
      "ĠDogs": 6917,
      "erts": 6918,
      "ormously": 6919,
      "Ġlean": 6920,
      "Ġleans": 6921,
      "Ġlecher": 6922,
      "Ġlemon": 6923,
      "Ġleaks": 6924,
      "Ġlefto": 6925,
      "Ġlevies": 6926,
      "aryllis": 6927,
      "Ġwhatnot": 6928,
      "Ġdement": 6929,
      "Ġdevil": 6930,
      "Ġdeaf": 6931,
      "Ġdepends": 6932,
      "ĠON": 6933,
      "ĠOR": 6934,
      "ĠOi": 6935,
      "ĠOs": 6936,
      "ĠOath": 6937,
      "ĠOoh": 6938,
      "ĠOVER": 6939,
      "ĠOlyvar": 6940,
      "ĠOtherwise": 6941,
      "Ġswill": 6942,
      "Ġswell": 6943,
      "Ġswears": 6944,
      "Ġswig": 6945,
      "Ġswept": 6946,
      "Ġswift": 6947,
      "Ġswitch": 6948,
      "Ġswilling": 6949,
      "Ġswallow": 6950,
      "ĠTargarian": 6951,
      "ources": 6952,
      "ĠNoise": 6953,
      "Ġchos": 6954,
      "Ġcharm": 6955,
      "Ġcharms": 6956,
      "Ġchased": 6957,
      "Ġchances": 6958,
      "Ġchallenged": 6959,
      "ĠFar": 6960,
      "ĠFill": 6961,
      "ĠFour": 6962,
      "ĠFish": 6963,
      "ĠFree": 6964,
      "ĠFoll": 6965,
      "ĠFier": 6966,
      "ĠFav": 6967,
      "ĠFift": 6968,
      "ĠFero": 6969,
      "ĠFamed": 6970,
      "ĠFeel": 6971,
      "ĠFetch": 6972,
      "ĠFilling": 6973,
      "ĠFilth": 6974,
      "ĠFIRE": 6975,
      "ĠFewer": 6976,
      "ĠFinish": 6977,
      "ĠFascin": 6978,
      "ĠFifty": 6979,
      "----------": 6980,
      "Ġrib": 6981,
      "Ġriot": 6982,
      "Ġripping": 6983,
      "Ġripost": 6984,
      "Ġrivals": 6985,
      "ership": 6986,
      "Ġwheels": 6987,
      "Ġwhelped": 6988,
      "Ġwhetstone": 6989,
      "essed": 6990,
      "Ġseek": 6991,
      "inding": 6992,
      "Ġsale": 6993,
      "Ġsaving": 6994,
      "onglass": 6995,
      "key": 6996,
      "ansoming": 6997,
      "Ġalas": 6998,
      "Ġalarm": 6999,
      "Ġalike": 7000,
      "Ġalthough": 7001,
      "Ġalerts": 7002,
      "iled": 7003,
      "ilty": 7004,
      "ĠRAN": 7005,
      "ĠRough": 7006,
      "ĠRound": 7007,
      "ĠRap": 7008,
      "ĠResc": 7009,
      "ĠRyk": 7010,
      "ĠRickard": 7011,
      "ĠRancer": 7012,
      "ĠRivers": 7013,
      "ĠRule": 7014,
      "ĠMyr": 7015,
      "ĠMyrcella": 7016,
      "Ġoutfo": 7017,
      "ustry": 7018,
      "esters": 7019,
      "ĠSnowL": 7020,
      "ĠVol": 7021,
      "ĠVanguard": 7022,
      "ĠVicious": 7023,
      "ĠVOICE": 7024,
      "ĠVermith": 7025,
      "ĠVroz": 7026,
      "ĠVirzet": 7027,
      "ĠVhagar": 7028,
      "Ġbrown": 7029,
      "Ġbroker": 7030,
      "Ġbroadsword": 7031,
      "ĠMormant": 7032,
      "ĠMormants": 7033,
      "Ġfathers": 7034,
      "Ġfatherly": 7035,
      "Ġupright": 7036,
      "Ġupstair": 7037,
      "ainer": 7038,
      "ainers": 7039,
      "ĠMormonts": 7040,
      "Ġbled": 7041,
      "Ġblast": 7042,
      "Ġblame": 7043,
      "Ġblowing": 7044,
      "Ġblaz": 7045,
      "Ġblamed": 7046,
      "Ġbluep": 7047,
      "Ġcomings": 7048,
      "Ġcomment": 7049,
      "Ġcommen": 7050,
      "geous": 7051,
      "vens": 7052,
      "Ġroam": 7053,
      "Ġroos": 7054,
      "Ġrobe": 7055,
      "Ġrobes": 7056,
      "Ġrows": 7057,
      "Ġroars": 7058,
      "Ġrook": 7059,
      "Ġrolling": 7060,
      "Ġroots": 7061,
      "Ġroasts": 7062,
      "Ġsole": 7063,
      "Ġsobs": 7064,
      "Ġsobered": 7065,
      "Ġsolid": 7066,
      "Ġsocket": 7067,
      "Jora": 7068,
      "ntly": 7069,
      "Ġabod": 7070,
      "Ġabiding": 7071,
      "Ġabdu": 7072,
      "Ġabsur": 7073,
      "Ġabilities": 7074,
      "Ġabund": 7075,
      "Ġabstract": 7076,
      "Ġsue": 7077,
      "Ġsuits": 7078,
      "Ġsubt": 7079,
      "Ġsudden": 7080,
      "Ġsucker": 7081,
      "ieft": 7082,
      "Ġherein": 7083,
      "Ġhereby": 7084,
      "quious": 7085,
      "Ġsheath": 7086,
      "Ġsheets": 7087,
      "Ġshepher": 7088,
      "Ġshedding": 7089,
      "wine": 7090,
      "Ġusing": 7091,
      "Ġuses": 7092,
      "Ġuseless": 7093,
      "tlement": 7094,
      "Ġbackwards": 7095,
      "Ġbrotherhood": 7096,
      "Ġarond": 7097,
      "Ġarrest": 7098,
      "Ġargues": 7099,
      "Ġarakh": 7100,
      "Ġoffense": 7101,
      "Ġoffends": 7102,
      "Ġoffered": 7103,
      "Ġoffering": 7104,
      "ively": 7105,
      "iveling": 7106,
      "Ġwhoa": 7107,
      "Ġjam": 7108,
      "Ġjoffrey": 7109,
      "Ġjackass": 7110,
      "Ġjesters": 7111,
      "Ġspat": 7112,
      "Ġspell": 7113,
      "Ġspot": 7114,
      "Ġspect": 7115,
      "Ġspider": 7116,
      "Ġspread": 7117,
      "Ġspee": 7118,
      "Ġspared": 7119,
      "Ġspeed": 7120,
      "Ġswordplay": 7121,
      "ctive": 7122,
      "ctured": 7123,
      "ctual": 7124,
      "emy": 7125,
      "ement": 7126,
      "embers": 7127,
      "Ġnowhere": 7128,
      "tock": 7129,
      "Ġenig": 7130,
      "Ġentered": 7131,
      "Ġencamp": 7132,
      "Ġenslaving": 7133,
      "Ġenergy": 7134,
      "Ġenthus": 7135,
      "Ġenormously": 7136,
      "things": 7137,
      "Then": 7138,
      "These": 7139,
      "Ġload": 7140,
      "Ġloving": 7141,
      "Ġlobs": 7142,
      "Ġlocale": 7143,
      "Ġlogist": 7144,
      "thraki": 7145,
      "ronage": 7146,
      "Ġwalkers": 7147,
      "ĠDothrakan": 7148,
      "ĠDothrakis": 7149,
      "Ġwhenever": 7150,
      "Ġkiller": 7151,
      "tsies": 7152,
      "Ġhoriz": 7153,
      "Ġhorrible": 7154,
      "ĠGot": 7155,
      "andsons": 7156,
      "ssov": 7157,
      "ĠEat": 7158,
      "ĠEight": 7159,
      "ĠEye": 7160,
      "ĠEither": 7161,
      "ĠEaster": 7162,
      "ĠEND": 7163,
      "ĠEvent": 7164,
      "ĠEating": 7165,
      "ĠEsc": 7166,
      "ĠEarth": 7167,
      "ĠEyes": 7168,
      "ĠEarlier": 7169,
      "ĠEchiel": 7170,
      "ĠEssov": 7171,
      "Ġhearts": 7172,
      "Ġworrying": 7173,
      "Ġworship": 7174,
      "berry": 7175,
      "neath": 7176,
      "Ġawakes": 7177,
      "Ġawaits": 7178,
      "Ġawhile": 7179,
      "Ġsomehow": 7180,
      "Ġgoodfolk": 7181,
      "Ġvol": 7182,
      "Ġvice": 7183,
      "Ġvigil": 7184,
      "Ġvanqu": 7185,
      "Ġvaz": 7186,
      "Ġvoices": 7187,
      "Ġvint": 7188,
      "Ġvanity": 7189,
      "Ġvomit": 7190,
      "Ġvacch": 7191,
      "Ġvirgins": 7192,
      "Ġvastoe": 7193,
      "Ġrub": 7194,
      "Ġrunt": 7195,
      "Ġruling": 7196,
      "Ġruined": 7197,
      "Ġruden": 7198,
      "Ġruler": 7199,
      "Ġrushing": 7200,
      "Ġneedles": 7201,
      "Ġages": 7202,
      "Ġagitated": 7203,
      "interest": 7204,
      "ĠArmour": 7205,
      "ĠArchonel": 7206,
      "ggle": 7207,
      "unal": 7208,
      "unate": 7209,
      "unity": 7210,
      "unless": 7211,
      "unished": 7212,
      "unseen": 7213,
      "ĠJonas": 7214,
      "abbard": 7215,
      "abouts": 7216,
      "feeding": 7217,
      "ĠServing": 7218,
      "Ġrights": 7219,
      "rounded": 7220,
      "Ġscary": 7221,
      "Ġscattered": 7222,
      "Ġscaled": 7223,
      "Ġscoots": 7224,
      "Ġscrap": 7225,
      "Ġscroll": 7226,
      "Ġscabbard": 7227,
      "Ġplain": 7228,
      "Ġplus": 7229,
      "Ġpluck": 7230,
      "Ġplacing": 7231,
      "Ġpledged": 7232,
      "Ġgirlhood": 7233,
      "ĠGrayjoy": 7234,
      "Ġshoulders": 7235,
      "ĠPypar": 7236,
      "Ġarmed": 7237,
      "Ġarmpit": 7238,
      "olutely": 7239,
      "onsible": 7240,
      "Ġkingly": 7241,
      "Ġagaint": 7242,
      "Ġwares": 7243,
      "Ġwarning": 7244,
      "Ġdrawn": 7245,
      "Ġdragging": 7246,
      "Ġdragged": 7247,
      "using": 7248,
      "uses": 7249,
      "---------------------": 7250,
      "--------------------------": 7251,
      "ulations": 7252,
      "ularly": 7253,
      "ulsive": 7254,
      "ĠUh": 7255,
      "ĠUnder": 7256,
      "ĠUlf": 7257,
      "Ġquill": 7258,
      "Samwel": 7259,
      "osa": 7260,
      "osal": 7261,
      "Ġtrump": 7262,
      "Ġwhereas": 7263,
      "Ġwhereabouts": 7264,
      "Ġlordlings": 7265,
      "Ġeverybody": 7266,
      "Ġrooms": 7267,
      "Ġhorsemen": 7268,
      "Ġhorseparts": 7269,
      "ĠSeize": 7270,
      "ĠSeveral": 7271,
      "ĠSealord": 7272,
      "Ġclans": 7273,
      "Ġcloth": 7274,
      "Ġcloaks": 7275,
      "Ġcliff": 7276,
      "Ġclapping": 7277,
      "Ġclambers": 7278,
      "Ġclouds": 7279,
      "Ġclutching": 7280,
      "Ġbetters": 7281,
      "Ġbetrays": 7282,
      "Ġexile": 7283,
      "Ġexcess": 7284,
      "Ġexpl": 7285,
      "Ġexceed": 7286,
      "Ġexclus": 7287,
      "Ġexpress": 7288,
      "Ġexercise": 7289,
      "Ġexamine": 7290,
      "otion": 7291,
      "othered": 7292,
      "Ġovercome": 7293,
      "Ġoverwhe": 7294,
      "icate": 7295,
      "icated": 7296,
      "icient": 7297,
      "Ġbloodrid": 7298,
      "Ġbloodrider": 7299,
      "ounded": 7300,
      "Ġslay": 7301,
      "Ġslice": 7302,
      "Ġslits": 7303,
      "Ġsliding": 7304,
      "Ġslices": 7305,
      "Ġslaps": 7306,
      "Ġslouch": 7307,
      "Ġsliced": 7308,
      "Ġslogging": 7309,
      "Ġslightly": 7310,
      "ĠSoft": 7311,
      "ĠForced": 7312,
      "ection": 7313,
      "Ġrag": 7314,
      "Ġraving": 7315,
      "Ġrapt": 7316,
      "Ġrags": 7317,
      "Ġrailing": 7318,
      "Ġraising": 7319,
      "Ġraucous": 7320,
      "Ġravaged": 7321,
      "ĠCassal": 7322,
      "Ġamount": 7323,
      "Ġamounts": 7324,
      "Ġampute": 7325,
      "Ġamusing": 7326,
      "Ġwomb": 7327,
      "atever": 7328,
      "Ġbeloved": 7329,
      "Ġprove": 7330,
      "Ġproven": 7331,
      "Ġproved": 7332,
      "Ġproble": 7333,
      "Ġprostit": 7334,
      "Ġprophe": 7335,
      "Ġprofit": 7336,
      "Ġprofan": 7337,
      "Ġprospers": 7338,
      "ĠKhals": 7339,
      "Ġserves": 7340,
      "Ġcourses": 7341,
      "RODRI": 7342,
      "Ġlongsword": 7343,
      "ĠIsles": 7344,
      "ĠIsland": 7345,
      "Ġlets": 7346,
      "Ġletting": 7347,
      "ĠWatching": 7348,
      "ĠWatchman": 7349,
      "Ġpreen": 7350,
      "Ġprepping": 7351,
      "Ġprevent": 7352,
      "Ġpredi": 7353,
      "Ġprefers": 7354,
      "Ġhappier": 7355,
      "Ġhappiest": 7356,
      "Ġdrags": 7357,
      "Ġdragonglass": 7358,
      "ENCE": 7359,
      "pted": 7360,
      "ptions": 7361,
      "Ġtalkative": 7362,
      "Ġappoin": 7363,
      "Ġapparently": 7364,
      "Ġapprent": 7365,
      "Ġfried": 7366,
      "Ġfrightens": 7367,
      "ĠMaek": 7368,
      "ĠMaegor": 7369,
      "Ġtents": 7370,
      "Ġsmiling": 7371,
      "Ġsmug": 7372,
      "Ġsmiths": 7373,
      "Ġsmothered": 7374,
      "ortly": 7375,
      "ortant": 7376,
      "Ġnightfall": 7377,
      "ountable": 7378,
      "Ġpoke": 7379,
      "Ġpokes": 7380,
      "Ġpoors": 7381,
      "Ġpollute": 7382,
      "igs": 7383,
      "igation": 7384,
      "igates": 7385,
      "igerence": 7386,
      "Ġconcept": 7387,
      "Ġconclus": 7388,
      "Ġcondem": 7389,
      "Ġconverse": 7390,
      "Ġoldest": 7391,
      "Ġasks": 7392,
      "Ġsteady": 7393,
      "Ġsteals": 7394,
      "Ġsteaming": 7395,
      "ĠOhosa": 7396,
      "ĠQoh": 7397,
      "Ġrunner": 7398,
      "Ġrunaways": 7399,
      "Ġtrip": 7400,
      "Ġtribute": 7401,
      "mmers": 7402,
      "mmoned": 7403,
      "anges": 7404,
      "Ġremedy": 7405,
      "Ġremembers": 7406,
      "agree": 7407,
      "Ġrant": 7408,
      "Ġrise": 7409,
      "Ġrising": 7410,
      "Ġrayder": 7411,
      "Ġrarely": 7412,
      "Ġringing": 7413,
      "Ġrallied": 7414,
      "Ġransoming": 7415,
      "Ġcoin": 7416,
      "Ġcoat": 7417,
      "Ġ12": 7418,
      "Ġ14": 7419,
      "Ġ15": 7420,
      "Ġhug": 7421,
      "Ġhuman": 7422,
      "Ġhumbly": 7423,
      "Ġhumil": 7424,
      "Ġholdings": 7425,
      "Ġgizik": 7426,
      "Ġgiggle": 7427,
      "Ġlovely": 7428,
      "Ġlovemaking": 7429,
      "Ġfriendship": 7430,
      "Ġturnip": 7431,
      "Ġmarvelous": 7432,
      "Ġattend": 7433,
      "Ġattaint": 7434,
      "Ġattrac": 7435,
      "Ġnewborn": 7436,
      "Ġnewcom": 7437,
      "ĠAssemble": 7438,
      "mpets": 7439,
      "mpkins": 7440,
      "ondent": 7441,
      "Ġhelms": 7442,
      "Ġguarding": 7443,
      "Ġguarded": 7444,
      "Ġrestore": 7445,
      "Ġcommanding": 7446,
      "becile": 7447,
      "bearded": 7448,
      "Ġtrap": 7449,
      "Ġtrain": 7450,
      "Ġtrait": 7451,
      "Ġtraged": 7452,
      "Ġcart": 7453,
      "Ġcared": 7454,
      "Ġcarve": 7455,
      "Ġcarving": 7456,
      "Ġcarav": 7457,
      "Ġcarries": 7458,
      "Ġdeaths": 7459,
      "pening": 7460,
      "Ġaccepts": 7461,
      "Ġgotten": 7462,
      "peration": 7463,
      "upts": 7464,
      "ĠShame": 7465,
      "ĠShips": 7466,
      "ĠShortly": 7467,
      "Ġflight": 7468,
      "Ġflown": 7469,
      "Ġflower": 7470,
      "Ġflattered": 7471,
      "Ġflames": 7472,
      "Ġflagon": 7473,
      "Ġflaps": 7474,
      "Ġflashes": 7475,
      "Ġflowery": 7476,
      "Ġflooding": 7477,
      "ĠLetting": 7478,
      "ĠNorthman": 7479,
      "Ġunite": 7480,
      "Ġunborn": 7481,
      "Ġuniting": 7482,
      "Ġunmake": 7483,
      "Ġunlik": 7484,
      "Ġunited": 7485,
      "Ġunaccust": 7486,
      "Ġunseated": 7487,
      "Ġunderneath": 7488,
      "Ġended": 7489,
      "Ġenduring": 7490,
      "Ġendures": 7491,
      "Ġhurry": 7492,
      "Ġhurts": 7493,
      "Ġdisse": 7494,
      "Ġdisarm": 7495,
      "Ġdisarms": 7496,
      "Ġdismiss": 7497,
      "Ġdisgusted": 7498,
      "Ġdisplay": 7499,
      "Ġdisbel": 7500,
      "Ġdismounts": 7501,
      "Ġdispat": 7502,
      "Ġdisadvantage": 7503,
      "Ġdisinterest": 7504,
      "Ġdisagree": 7505,
      "Ġdragonstone": 7506,
      "Ġdragonbone": 7507,
      "then": 7508,
      "Ġfamous": 7509,
      "Ġgrounds": 7510,
      "ĠWhoa": 7511,
      "ĠWhoever": 7512,
      "Allo": 7513,
      "Allow": 7514,
      "ollo": 7515,
      "Ġfooling": 7516,
      "Ġowns": 7517,
      "Ġsupply": 7518,
      "msy": 7519,
      "Ġwronged": 7520,
      "Ġsituation": 7521,
      "Ġbatting": 7522,
      "Ġbathed": 7523,
      "Ġbattled": 7524,
      "Ġbattling": 7525,
      "Ġcaution": 7526,
      "Ġcaws": 7527,
      "Ġcawing": 7528,
      "Ġcapable": 7529,
      "ĠBlue": 7530,
      "ĠBlond": 7531,
      "ĠBlessed": 7532,
      "Ġretinue": 7533,
      "Ġretaliate": 7534,
      "Ġretainers": 7535,
      "ĠOnward": 7536,
      "Ġblackberry": 7537,
      "Whatever": 7538,
      "ipment": 7539,
      "Ġimmu": 7540,
      "Ġimbecile": 7541,
      "Ġmermaid": 7542,
      "ĠInn": 7543,
      "ĠInform": 7544,
      "Ġcries": 7545,
      "Ġcried": 7546,
      "Ġmeanwhile": 7547,
      "Ġhairy": 7548,
      "Ġremembered": 7549,
      "Barrist": 7550,
      "pecting": 7551,
      "pective": 7552,
      "ancing": 7553,
      "Ġbuying": 7554,
      "Ġbundle": 7555,
      "Ġburns": 7556,
      "Ġhandker": 7557,
      "Ġglow": 7558,
      "Ġglance": 7559,
      "Ġgloat": 7560,
      "Ġglimpses": 7561,
      "âĢĿ,": 7562,
      "Ġhelpless": 7563,
      "Ġsquad": 7564,
      "Ġsqualling": 7565,
      "Ġhops": 7566,
      "acticing": 7567,
      "Ġapprove": 7568,
      "Ġapproval": 7569,
      "tedly": 7570,
      "Ġopening": 7571,
      "assins": 7572,
      "ĠBecc": 7573,
      "ĠCompanions": 7574,
      "Ġunderstood": 7575,
      "Ġelite": 7576,
      "Ġeldest": 7577,
      "Ġeleg": 7578,
      "Ġdesires": 7579,
      "Ġdesperation": 7580,
      "Ġcrowds": 7581,
      "Ġprimp": 7582,
      "Ġprized": 7583,
      "Ġprimit": 7584,
      "Ġearshot": 7585,
      "Ġassign": 7586,
      "Ġassured": 7587,
      "Ġassures": 7588,
      "Ġassigned": 7589,
      "Ġassassins": 7590,
      "Ġcompared": 7591,
      "Ġcompanions": 7592,
      "Ġcompanion": 7593,
      "ization": 7594,
      "Ġwinds": 7595,
      "Ġbread": 7596,
      "Ġbreach": 7597,
      "Ġbreeding": 7598,
      "Ġchew": 7599,
      "Ġcheated": 7600,
      "Ġcheap": 7601,
      "Ġchewy": 7602,
      "Ġcheering": 7603,
      "Ġcareful": 7604,
      "Ġgodswood": 7605,
      "Ġarriving": 7606,
      "Ġadores": 7607,
      "ĠToad": 7608,
      "ĠTogether": 7609,
      "Ġmeetings": 7610,
      "versions": 7611,
      "ĠGetting": 7612,
      "Ġshift": 7613,
      "Ġbattlements": 7614,
      "Ġbattleaxes": 7615,
      "ronted": 7616,
      "Ġtreasons": 7617,
      "Ġmurmurs": 7618,
      "Ġhalfman": 7619,
      "Ġhalfwit": 7620,
      "Ġdaily": 7621,
      "Ġdazed": 7622,
      "ĠImpec": 7623,
      "ĠImpressive": 7624,
      "ĠImpudent": 7625,
      "ĠImpossible": 7626,
      "ĠImportant": 7627,
      "Ġgray": 7628,
      "Ġgrant": 7629,
      "Ġgrins": 7630,
      "Ġgratit": 7631,
      "Ġgracious": 7632,
      "Ġgrandsons": 7633,
      "ĠTheona": 7634,
      "Ġleadership": 7635,
      "ĠOrys": 7636,
      "Ġscreamers": 7637,
      "Pycelle": 7638,
      "fered": 7639,
      "ferent": 7640,
      "umed": 7641,
      "Ġcrossroad": 7642,
      "Ġcampfire": 7643,
      "Ġknighted": 7644,
      "Ġknighthood": 7645,
      "Ġeats": 7646,
      "ĠThorneL": 7647,
      "ĠPray": 7648,
      "ĠPracticing": 7649,
      "Ġworking": 7650,
      "Ġvisor": 7651,
      "Ġvision": 7652,
      "Ġvisitors": 7653,
      "Ġplayers": 7654,
      "Ġplaything": 7655,
      "Ġpeacefully": 7656,
      "ĠBlackwater": 7657,
      "deceased": 7658,
      "manent": 7659,
      "armoured": 7660,
      "Ġsingularly": 7661,
      "Ġbiting": 7662,
      "Ġbitches": 7663,
      "Ġhushed": 7664,
      "Ġyounger": 7665,
      "Ġrepay": 7666,
      "Ġreply": 7667,
      "Ġreporting": 7668,
      "Ġrepresent": 7669,
      "Ġreprieve": 7670,
      "Ġrepulsive": 7671,
      "Ġmovements": 7672,
      "Ġpresiding": 7673,
      "Ġpreserve": 7674,
      "Ġdirewolves": 7675,
      "Stand": 7676,
      "Stick": 7677,
      "Stev": 7678,
      "lessness": 7679,
      "Ġgraves": 7680,
      "Ġgrabbing": 7681,
      "Ġstronger": 7682,
      "ĠClean": 7683,
      "ĠClever": 7684,
      "Ġnears": 7685,
      "Ġnearest": 7686,
      "---------------------------------": 7687,
      "------------------------------------": 7688,
      "--------------------------------------": 7689,
      "Ġguardsmen": 7690,
      "Ġguardsman": 7691,
      "Ġmurderer": 7692,
      "Ġmurdering": 7693,
      "Ġmurderers": 7694,
      "Ġhusbands": 7695,
      "evously": 7696,
      "shit": 7697,
      "Ġsadly": 7698,
      "Ġsadness": 7699,
      "Ġmessed": 7700,
      "Ġbowl": 7701,
      "Ġbowing": 7702,
      "Ġbowed": 7703,
      "Ġcontrol": 7704,
      "Ġcontents": 7705,
      "Ġcontaining": 7706,
      "Ġcontrols": 7707,
      "Ġcontrapt": 7708,
      "Ġcontainer": 7709,
      "Ġstupidest": 7710,
      "Ġstupidity": 7711,
      "Ġlearnt": 7712,
      "Ġdefying": 7713,
      "Ġdefiantly": 7714,
      "Ġdefensel": 7715,
      "Ġsweetly": 7716,
      "Ġsweetling": 7717,
      "ĠRein": 7718,
      "Ġprotects": 7719,
      "Ġprotected": 7720,
      "Ġprotection": 7721,
      "Ġimpressed": 7722,
      "Ġimpressive": 7723,
      "Ġimpudent": 7724,
      "Ġimplor": 7725,
      "Ġimprison": 7726,
      "Ġimprovement": 7727,
      "Ġimpunity": 7728,
      "Ġcriminals": 7729,
      "Ġmysterious": 7730,
      "Ġminds": 7731,
      "Ġmindless": 7732,
      "Ġmounted": 7733,
      "Ġmountain": 7734,
      "Ġmountaint": 7735,
      "Ġhighly": 7736,
      "Ġhighway": 7737,
      "Ġfreeing": 7738,
      "Ġfreezing": 7739,
      "ĠLittlefingers": 7740,
      "Ġknack": 7741,
      "Ġknelt": 7742,
      "Ġknifes": 7743,
      "Ġrecent": 7744,
      "Ġrecite": 7745,
      "Ġrecog": 7746,
      "Ġreciting": 7747,
      "Ġrecovery": 7748,
      "Ġtruths": 7749,
      "Ġbelonged": 7750,
      "Ġprayer": 7751,
      "Ġbeginning": 7752,
      "Ġhunted": 7753,
      "Ġaccent": 7754,
      "Ġaccuse": 7755,
      "Ġaccounts": 7756,
      "Ġaccording": 7757,
      "Ġaccidentally": 7758,
      "Ġaccordance": 7759,
      "Ġaccountable": 7760,
      "thels": 7761,
      "Ġcaptain": 7762,
      "Ġcaptors": 7763,
      "Ġcapturing": 7764,
      "Think": 7765,
      "Those": 7766,
      "Ġtouching": 7767,
      "heads": 7768,
      "Ġacts": 7769,
      "Ġactor": 7770,
      "Ġaction": 7771,
      "Ġactual": 7772,
      "Ġwintry": 7773,
      "Ġsentry": 7774,
      "Ġmission": 7775,
      "Ġdroves": 7776,
      "Ġdropped": 7777,
      "Ġdropping": 7778,
      "Ġcatatonic": 7779,
      "Ġcatacombs": 7780,
      "Ġcatastrophe": 7781,
      "Ġconsort": 7782,
      "Ġconsumed": 7783,
      "Ġbears": 7784,
      "Ġbearing": 7785,
      "Ġinterfere": 7786,
      "Ġintertwin": 7787,
      "Ġinterfered": 7788,
      "ĠMadness": 7789,
      "Ġstabbing": 7790,
      "Ġstabbings": 7791,
      "ĠRiverland": 7792,
      "Ġboded": 7793,
      "Ġdrawing": 7794,
      "Ġtrusting": 7795,
      "Ġwonderful": 7796,
      "Ġtraitors": 7797,
      "Ġcouncilors": 7798,
      "Ġvisited": 7799,
      "apse": 7800,
      "napped": 7801,
      "Ġwilding": 7802,
      "Ġsurviving": 7803,
      "Ġdifficul": 7804,
      "Ġguilty": 7805,
      "Ġpastries": 7806,
      "Ġuseful": 7807,
      "rusts": 7808,
      "rusting": 7809,
      "Ġdecent": 7810,
      "Ġchopping": 7811,
      "Ġchoking": 7812,
      "Ġchoices": 7813,
      "Ġseemingly": 7814,
      "Ġjokes": 7815,
      "Ġjoking": 7816,
      "Ġservicing": 7817,
      "Ġconfined": 7818,
      "Ġconfused": 7819,
      "Ġconfidant": 7820,
      "Ġconfirm": 7821,
      "Ġconfronted": 7822,
      "Ġclears": 7823,
      "Ġwinters": 7824,
      "Ġbrain": 7825,
      "Ġbraver": 7826,
      "Ġbrazen": 7827,
      "Ġfucks": 7828,
      "Ġdarkest": 7829,
      "Ġdancer": 7830,
      "ĠLeg": 7831,
      "ĠMeraxes": 7832,
      "Ġsecure": 7833,
      "Ġsecuring": 7834,
      "Ġseconds": 7835,
      "ĠRedwy": 7836,
      "Ġcommit": 7837,
      "Ġcommunal": 7838,
      "Ġcommotion": 7839,
      "Ġdifferences": 7840,
      "whore": 7841,
      "whispers": 7842,
      "Ġtourney": 7843,
      "Ġwrist": 7844,
      "Ġwriting": 7845,
      "retion": 7846,
      "Ġmonstrous": 7847,
      "Ġmonarch": 7848,
      "Ġmommy": 7849,
      "Ġlsn": 7850,
      "Ġlistens": 7851,
      "Ġlistening": 7852,
      "Ġdoubts": 7853,
      "Ġcorrectly": 7854,
      "Ġcowers": 7855,
      "Ġoathbreaker": 7856,
      "Ġhealer": 7857,
      "Ġhealing": 7858,
      "Ġhealers": 7859,
      "Ġbells": 7860,
      "Ġbelligerence": 7861,
      "Ġpissing": 7862,
      "Ġpisses": 7863,
      "ĠAnything": 7864,
      "ĠAnybody": 7865,
      "Ġkhals": 7866,
      "Ġstrip": 7867,
      "Ġstriking": 7868,
      "Ġstricken": 7869,
      "ĠKnighted": 7870,
      "Ġresist": 7871,
      "Ġrescue": 7872,
      "Ġresources": 7873,
      "Ġvia": 7874,
      "Ġfeeling": 7875,
      "Ġscaring": 7876,
      "Ġclimber": 7877,
      "Ġclimbed": 7878,
      "Ġexpects": 7879,
      "Ġpretending": 7880,
      "Ġprettier": 7881,
      "Ġdiscard": 7882,
      "Ġdiscretion": 7883,
      "Ġchests": 7884,
      "Ġdefends": 7885,
      "Ġwounds": 7886,
      "reetly": 7887,
      "Ġmilitary": 7888,
      "Ġballad": 7889,
      "Ġdresses": 7890,
      "Ġgripping": 7891,
      "Ġgrief": 7892,
      "Ġgrieves": 7893,
      "Ġgrievously": 7894,
      "ĠWesterlands": 7895,
      "Ġpicture": 7896,
      "Ġpiggy": 7897,
      "Ġpivot": 7898,
      "Ġpictured": 7899,
      "Ġperch": 7900,
      "Ġperils": 7901,
      "Ġperversions": 7902,
      "Ġpermanent": 7903,
      "Ġpaying": 7904,
      "Ġpursue": 7905,
      "Ġpurveyor": 7906,
      "Ġpersuade": 7907,
      "Ġperspective": 7908,
      "Ġpleasant": 7909,
      "ĠMounts": 7910,
      "Ġkissing": 7911,
      "Ġstraw": 7912,
      "Ġforgets": 7913,
      "idered": 7914,
      "Ġrefresh": 7915,
      "Ġrefuses": 7916,
      "Ġlivestock": 7917,
      "Ġnecklace": 7918,
      "Ġwears": 7919,
      "Ġwearily": 7920,
      "Ġsavaged": 7921,
      "Ġwarmly": 7922,
      "Ġwarmth": 7923,
      "Ġheadscar": 7924,
      "Ġcrowns": 7925,
      "Ġcowardly": 7926,
      "pleadingly": 7927,
      "Ġbabes": 7928,
      "ĠSwords": 7929,
      "Ġcellar": 7930,
      "Ġinstall": 7931,
      "ĠKilling": 7932,
      "ĠJustice": 7933,
      "Ġdeepest": 7934,
      "Ġchantines": 7935,
      "ĠEnter": 7936,
      "Ġfeasts": 7937,
      "Ġfeasting": 7938,
      "Ġrapidly": 7939,
      "Ġfootsteps": 7940,
      "Ġbodyguard": 7941,
      "Ġbellyful": 7942,
      "ĠWesterosi": 7943,
      "ĠMountains": 7944,
      "Does": 7945,
      "Dothraki": 7946,
      "Myrcella": 7947,
      "ceress": 7948,
      "ograph": 7949,
      "unteer": 7950,
      "Ġentry": 7951,
      "Ġentrusts": 7952,
      "Ġescorts": 7953,
      "Ġsettled": 7954,
      "Ġsettlement": 7955,
      "Ġbarrack": 7956,
      "Ġbarbered": 7957,
      "Ġlowly": 7958,
      "Ġlowers": 7959,
      "Ġlowest": 7960,
      "Ġlowborn": 7961,
      "Ġdistrust": 7962,
      "Ġdistressed": 7963,
      "Ġdisturb": 7964,
      "Ġdreamed": 7965,
      "itional": 7966,
      "ĠTommy": 7967,
      "nocent": 7968,
      "ĠWasn": 7969,
      "Ġpacks": 7970,
      "Ġpackage": 7971,
      "Ġinspecting": 7972,
      "Ġintently": 7973,
      "Ġintends": 7974,
      "Ġintrodu": 7975,
      "Ġintrepid": 7976,
      "Ġinvasion": 7977,
      "Ġinvitation": 7978,
      "Ġinvaded": 7979,
      "ĠAmidst": 7980,
      "ĠAmaryllis": 7981,
      "Ġforehand": 7982,
      "ĠClan": 7983,
      "ĠCounsel": 7984,
      "Ġrebels": 7985,
      "Ġredheads": 7986,
      "Ġliking": 7987,
      "Ġshowing": 7988,
      "Ġshowed": 7989,
      "Ġsummerwine": 7990,
      "Ġtribesman": 7991,
      "Ġcripples": 7992,
      "Ġcleaner": 7993,
      "Ġcleaning": 7994,
      "Ġdeserve": 7995,
      "Ġdeserters": 7996,
      "Ġdeserved": 7997,
      "Ġnortherner": 7998,
      "Ġdoubtless": 7999
    },
    "merges": [
      [
        "Ġ",
        "t"
      ],
      [
        "h",
        "e"
      ],
      [
        "č",
        "Ċ"
      ],
      [
        "Ġ",
        "a"
      ],
      [
        "i",
        "n"
      ],
      [
        "o",
        "u"
      ],
      [
        "a",
        "r"
      ],
      [
        "e",
        "r"
      ],
      [
        "o",
        "n"
      ],
      [
        "Ġ",
        "w"
      ],
      [
        "Ġ",
        "-"
      ],
      [
        "Ġ",
        "s"
      ],
      [
        "Ġt",
        "he"
      ],
      [
        "o",
        "r"
      ],
      [
        "a",
        "n"
      ],
      [
        "i",
        "s"
      ],
      [
        "r",
        "e"
      ],
      [
        "Ġ",
        "m"
      ],
      [
        "Ġ",
        "b"
      ],
      [
        "Ġ",
        "h"
      ],
      [
        "a",
        "t"
      ],
      [
        "in",
        "g"
      ],
      [
        "Ġ",
        "y"
      ],
      [
        "e",
        "n"
      ],
      [
        "l",
        "l"
      ],
      [
        "Ġy",
        "ou"
      ],
      [
        "Ġ",
        "S"
      ],
      [
        "Ġ",
        "l"
      ],
      [
        "Ġt",
        "o"
      ],
      [
        "Ġ",
        "f"
      ],
      [
        "Ġ",
        "d"
      ],
      [
        "Ġ",
        "I"
      ],
      [
        "e",
        "s"
      ],
      [
        "Ġ",
        "c"
      ],
      [
        "i",
        "t"
      ],
      [
        "n",
        "d"
      ],
      [
        "Ġ",
        "o"
      ],
      [
        "Ġ",
        "T"
      ],
      [
        "e",
        "d"
      ],
      [
        "Ġ",
        "L"
      ],
      [
        "n",
        "o"
      ],
      [
        "Ġo",
        "f"
      ],
      [
        "ĠS",
        "t"
      ],
      [
        "t",
        "er"
      ],
      [
        "Ġ",
        "he"
      ],
      [
        "a",
        "s"
      ],
      [
        "Ġt",
        "h"
      ],
      [
        "Ġa",
        "nd"
      ],
      [
        "ar",
        "k"
      ],
      [
        "o",
        "m"
      ],
      [
        "Ġ",
        "g"
      ],
      [
        "ĠSt",
        "ark"
      ],
      [
        "Ġ",
        "W"
      ],
      [
        "r",
        "i"
      ],
      [
        "v",
        "e"
      ],
      [
        "Ġ",
        "B"
      ],
      [
        "Ġb",
        "e"
      ],
      [
        "-",
        "-"
      ],
      [
        "Ġ",
        "p"
      ],
      [
        "Ġ",
        "in"
      ],
      [
        "e",
        "l"
      ],
      [
        "â",
        "Ģ"
      ],
      [
        "l",
        "e"
      ],
      [
        "Ġ",
        "A"
      ],
      [
        "i",
        "m"
      ],
      [
        "r",
        "o"
      ],
      [
        "l",
        "d"
      ],
      [
        "g",
        "h"
      ],
      [
        "Ġ",
        "M"
      ],
      [
        "'",
        "s"
      ],
      [
        "y",
        "s"
      ],
      [
        "Ġ",
        "Y"
      ],
      [
        "Ġ",
        "no"
      ],
      [
        "or",
        "d"
      ],
      [
        "Ġ",
        "is"
      ],
      [
        "Ġ",
        "H"
      ],
      [
        "ar",
        "d"
      ],
      [
        "e",
        "t"
      ],
      [
        "Ġ",
        "k"
      ],
      [
        "ĠT",
        "he"
      ],
      [
        "a",
        "d"
      ],
      [
        "âĢ",
        "Ļ"
      ],
      [
        "a",
        "c"
      ],
      [
        "a",
        "l"
      ],
      [
        "he",
        "r"
      ],
      [
        "ĠY",
        "ou"
      ],
      [
        "ĠL",
        "an"
      ],
      [
        "Ġ",
        "on"
      ],
      [
        "Ġm",
        "e"
      ],
      [
        "Ġ",
        "D"
      ],
      [
        "i",
        "ll"
      ],
      [
        "is",
        "ter"
      ],
      [
        "Ġs",
        "t"
      ],
      [
        "s",
        "e"
      ],
      [
        "Ġyou",
        "r"
      ],
      [
        "Ġ",
        "it"
      ],
      [
        "a",
        "k"
      ],
      [
        "o",
        "w"
      ],
      [
        "o",
        "o"
      ],
      [
        "Ġf",
        "or"
      ],
      [
        "i",
        "d"
      ],
      [
        "Ġw",
        "h"
      ],
      [
        "Ġ",
        "K"
      ],
      [
        "Ġm",
        "y"
      ],
      [
        "s",
        "t"
      ],
      [
        "Ġh",
        "is"
      ],
      [
        "Ġ",
        "N"
      ],
      [
        "a",
        "y"
      ],
      [
        "n",
        "ister"
      ],
      [
        "v",
        "er"
      ],
      [
        "ĠLan",
        "nister"
      ],
      [
        "l",
        "y"
      ],
      [
        "gh",
        "t"
      ],
      [
        "t",
        "h"
      ],
      [
        "R",
        "o"
      ],
      [
        "e",
        "ll"
      ],
      [
        "Ġ",
        "n"
      ],
      [
        "an",
        "d"
      ],
      [
        "Ġh",
        "a"
      ],
      [
        ".",
        "."
      ],
      [
        "u",
        "t"
      ],
      [
        "i",
        "r"
      ],
      [
        "a",
        "m"
      ],
      [
        "Ġ",
        "u"
      ],
      [
        "it",
        "h"
      ],
      [
        "Ġh",
        "im"
      ],
      [
        "r",
        "y"
      ],
      [
        "'",
        "t"
      ],
      [
        "--",
        "--"
      ],
      [
        "Ġ",
        "e"
      ],
      [
        "Ġ",
        "G"
      ],
      [
        "Ġw",
        "ith"
      ],
      [
        "Ġd",
        "o"
      ],
      [
        "no",
        "w"
      ],
      [
        "he",
        "on"
      ],
      [
        "Ro",
        "b"
      ],
      [
        "y",
        "ri"
      ],
      [
        "Ġth",
        "at"
      ],
      [
        "Ġ",
        "C"
      ],
      [
        "Ġ",
        "re"
      ],
      [
        "Ġw",
        "as"
      ],
      [
        "Ġa",
        "s"
      ],
      [
        "Ġl",
        "i"
      ],
      [
        "an",
        "t"
      ],
      [
        "Ġa",
        "t"
      ],
      [
        "ou",
        "t"
      ],
      [
        "Ġha",
        "ve"
      ],
      [
        "ou",
        "ld"
      ],
      [
        "ĠB",
        "ar"
      ],
      [
        "ĠK",
        "ing"
      ],
      [
        "t",
        "her"
      ],
      [
        "Ġs",
        "e"
      ],
      [
        "ĠW",
        "h"
      ],
      [
        "c",
        "h"
      ],
      [
        "d",
        "d"
      ],
      [
        "at",
        "heon"
      ],
      [
        "ĠBar",
        "atheon"
      ],
      [
        "i",
        "ght"
      ],
      [
        "er",
        "ys"
      ],
      [
        "ac",
        "k"
      ],
      [
        "Ġ",
        "J"
      ],
      [
        "yri",
        "on"
      ],
      [
        "a",
        "ll"
      ],
      [
        "Ġw",
        "ill"
      ],
      [
        "Ġno",
        "t"
      ],
      [
        "r",
        "a"
      ],
      [
        "u",
        "r"
      ],
      [
        "Ġhe",
        "r"
      ],
      [
        "E",
        "dd"
      ],
      [
        "Ġs",
        "h"
      ],
      [
        "Ġn",
        "e"
      ],
      [
        "ĠH",
        "e"
      ],
      [
        "Edd",
        "ard"
      ],
      [
        "Ġa",
        "re"
      ],
      [
        "on",
        "e"
      ],
      [
        "om",
        "e"
      ],
      [
        "ĠT",
        "ar"
      ],
      [
        "en",
        "t"
      ],
      [
        "i",
        "f"
      ],
      [
        "ĠL",
        "ord"
      ],
      [
        "Ġg",
        "o"
      ],
      [
        "h",
        "a"
      ],
      [
        "c",
        "e"
      ],
      [
        "as",
        "t"
      ],
      [
        "o",
        "y"
      ],
      [
        "Ġw",
        "e"
      ],
      [
        "r",
        "om"
      ],
      [
        "r",
        "u"
      ],
      [
        "re",
        "y"
      ],
      [
        "oo",
        "d"
      ],
      [
        "c",
        "k"
      ],
      [
        "T",
        "yrion"
      ],
      [
        "ĠA",
        "nd"
      ],
      [
        "Ġm",
        "an"
      ],
      [
        "a",
        "en"
      ],
      [
        "..",
        "."
      ],
      [
        "or",
        "e"
      ],
      [
        "ĠT",
        "h"
      ],
      [
        "Ġk",
        "now"
      ],
      [
        "Ġa",
        "n"
      ],
      [
        "Ġthe",
        "m"
      ],
      [
        "Ġa",
        "ll"
      ],
      [
        "im",
        "e"
      ],
      [
        "oo",
        "k"
      ],
      [
        "Ġ",
        "P"
      ],
      [
        "ĠD",
        "o"
      ],
      [
        "p",
        "p"
      ],
      [
        "er",
        "t"
      ],
      [
        "Ġw",
        "ant"
      ],
      [
        "or",
        "m"
      ],
      [
        "Ġf",
        "rom"
      ],
      [
        "Ġl",
        "e"
      ],
      [
        "el",
        "y"
      ],
      [
        "'",
        "ll"
      ],
      [
        "ar",
        "y"
      ],
      [
        "Ġwh",
        "at"
      ],
      [
        "aen",
        "erys"
      ],
      [
        "Ġc",
        "an"
      ],
      [
        "at",
        "her"
      ],
      [
        "Ġd",
        "e"
      ],
      [
        "Ġ",
        "O"
      ],
      [
        "a",
        "h"
      ],
      [
        "Ġs",
        "w"
      ],
      [
        "ĠTar",
        "g"
      ],
      [
        "Rob",
        "ert"
      ],
      [
        "ary",
        "en"
      ],
      [
        "ĠTarg",
        "aryen"
      ],
      [
        "ou",
        "r"
      ],
      [
        "'",
        "re"
      ],
      [
        "on",
        "t"
      ],
      [
        "ĠN",
        "o"
      ],
      [
        "Ġc",
        "h"
      ],
      [
        "ĠWh",
        "at"
      ],
      [
        "Ġ",
        "F"
      ],
      [
        "----",
        "----"
      ],
      [
        "Ġ",
        "ri"
      ],
      [
        "e",
        "p"
      ],
      [
        "r",
        "ou"
      ],
      [
        "er",
        "s"
      ],
      [
        "is",
        "h"
      ],
      [
        "Ġw",
        "he"
      ],
      [
        "at",
        "ely"
      ],
      [
        "es",
        "s"
      ],
      [
        "Ġth",
        "is"
      ],
      [
        "en",
        "d"
      ],
      [
        "al",
        "k"
      ],
      [
        "Ġse",
        "e"
      ],
      [
        "ately",
        "n"
      ],
      [
        "in",
        "d"
      ],
      [
        "Ġon",
        "e"
      ],
      [
        "ak",
        "e"
      ],
      [
        "Ġs",
        "a"
      ],
      [
        "on",
        "g"
      ],
      [
        "k",
        "e"
      ],
      [
        "an",
        "s"
      ],
      [
        "ry",
        "a"
      ],
      [
        "Ġa",
        "l"
      ],
      [
        "r",
        "an"
      ],
      [
        "i",
        "l"
      ],
      [
        "i",
        "on"
      ],
      [
        "Ġ",
        "R"
      ],
      [
        "ĠM",
        "y"
      ],
      [
        "Rob",
        "b"
      ],
      [
        "ĠI",
        "t"
      ],
      [
        "J",
        "on"
      ],
      [
        "Ġ",
        "out"
      ],
      [
        "Ġd",
        "on"
      ],
      [
        "u",
        "st"
      ],
      [
        "Ġthe",
        "y"
      ],
      [
        "es",
        "ter"
      ],
      [
        "e",
        "ar"
      ],
      [
        "ĠS",
        "now"
      ],
      [
        "Ġ",
        "V"
      ],
      [
        "'",
        "m"
      ],
      [
        "Ġw",
        "ould"
      ],
      [
        "a",
        "el"
      ],
      [
        "Ġb",
        "ro"
      ],
      [
        "f",
        "f"
      ],
      [
        "Ġm",
        "en"
      ],
      [
        "ĠW",
        "e"
      ],
      [
        "ĠM",
        "orm"
      ],
      [
        "Ġl",
        "ook"
      ],
      [
        "Ġf",
        "ather"
      ],
      [
        "Ġu",
        "p"
      ],
      [
        "ans",
        "a"
      ],
      [
        "a",
        "in"
      ],
      [
        "ĠB",
        "ael"
      ],
      [
        "ĠMorm",
        "ont"
      ],
      [
        "v",
        "es"
      ],
      [
        "Ġb",
        "l"
      ],
      [
        "Ġc",
        "om"
      ],
      [
        "ac",
        "e"
      ],
      [
        "Ġd",
        "id"
      ],
      [
        "ver",
        "y"
      ],
      [
        "D",
        "aenerys"
      ],
      [
        "g",
        "e"
      ],
      [
        "g",
        "o"
      ],
      [
        "v",
        "en"
      ],
      [
        "Ġ",
        "ro"
      ],
      [
        "Ġs",
        "o"
      ],
      [
        "id",
        "e"
      ],
      [
        "Ġb",
        "ut"
      ],
      [
        "J",
        "or"
      ],
      [
        "a",
        "ester"
      ],
      [
        "n",
        "t"
      ],
      [
        "ĠBael",
        "ish"
      ],
      [
        "Ġa",
        "b"
      ],
      [
        "Ġs",
        "u"
      ],
      [
        "Ġli",
        "ke"
      ],
      [
        "C",
        "atelyn"
      ],
      [
        "i",
        "e"
      ],
      [
        "er",
        "se"
      ],
      [
        "Ġhe",
        "re"
      ],
      [
        "erse",
        "i"
      ],
      [
        "q",
        "u"
      ],
      [
        "Ġs",
        "he"
      ],
      [
        "o",
        "p"
      ],
      [
        "w",
        "in"
      ],
      [
        "in",
        "k"
      ],
      [
        "ar",
        "ys"
      ],
      [
        "ad",
        "y"
      ],
      [
        "Ġu",
        "s"
      ],
      [
        "t",
        "le"
      ],
      [
        "Ġthe",
        "ir"
      ],
      [
        "Ġm",
        "o"
      ],
      [
        "Ġ",
        "("
      ],
      [
        "Ġb",
        "ack"
      ],
      [
        "Ġbro",
        "ther"
      ],
      [
        "o",
        "ff"
      ],
      [
        "et",
        "y"
      ],
      [
        "ĠThe",
        "y"
      ],
      [
        "Ġa",
        "r"
      ],
      [
        "Ġof",
        "f"
      ],
      [
        "off",
        "rey"
      ],
      [
        "i",
        "ve"
      ],
      [
        "'",
        "ve"
      ],
      [
        "s",
        "el"
      ],
      [
        "Ġwh",
        "o"
      ],
      [
        "a",
        "ime"
      ],
      [
        "Ġ",
        "j"
      ],
      [
        "Ġ",
        "if"
      ],
      [
        "Ġb",
        "oy"
      ],
      [
        "ety",
        "r"
      ],
      [
        "P",
        "etyr"
      ],
      [
        "Ġs",
        "p"
      ],
      [
        "Ġsw",
        "ord"
      ],
      [
        "C",
        "ersei"
      ],
      [
        "i",
        "ld"
      ],
      [
        "Ġthe",
        "re"
      ],
      [
        "A",
        "rya"
      ],
      [
        "a",
        "u"
      ],
      [
        "or",
        "n"
      ],
      [
        "es",
        "t"
      ],
      [
        "c",
        "t"
      ],
      [
        "e",
        "m"
      ],
      [
        "Ġh",
        "as"
      ],
      [
        "Ġab",
        "out"
      ],
      [
        "in",
        "e"
      ],
      [
        "Ġno",
        "w"
      ],
      [
        "h",
        "al"
      ],
      [
        "am",
        "e"
      ],
      [
        "t",
        "o"
      ],
      [
        "Ġ",
        "en"
      ],
      [
        "i",
        "re"
      ],
      [
        "Ġg",
        "et"
      ],
      [
        "th",
        "ing"
      ],
      [
        "a",
        "ve"
      ],
      [
        "d",
        "ing"
      ],
      [
        "er",
        "e"
      ],
      [
        "ĠS",
        "he"
      ],
      [
        "ĠW",
        "he"
      ],
      [
        "ĠYou",
        "r"
      ],
      [
        "ur",
        "n"
      ],
      [
        "T",
        "he"
      ],
      [
        "r",
        "ak"
      ],
      [
        "Ġl",
        "o"
      ],
      [
        "Jor",
        "ah"
      ],
      [
        "at",
        "ch"
      ],
      [
        "th",
        "rak"
      ],
      [
        ".",
        "]"
      ],
      [
        "r",
        "on"
      ],
      [
        "Ġw",
        "alk"
      ],
      [
        "is",
        "t"
      ],
      [
        "ro",
        "go"
      ],
      [
        "ĠDo",
        "thrak"
      ],
      [
        "Ġwhe",
        "n"
      ],
      [
        "E",
        "R"
      ],
      [
        "ow",
        "n"
      ],
      [
        "Ġto",
        "o"
      ],
      [
        "it",
        "tle"
      ],
      [
        "Ġk",
        "ill"
      ],
      [
        "ĠD",
        "rogo"
      ],
      [
        "ĠN",
        "ed"
      ],
      [
        "S",
        "ansa"
      ],
      [
        "ro",
        "w"
      ],
      [
        "t",
        "s"
      ],
      [
        "d",
        "s"
      ],
      [
        "Ġs",
        "ay"
      ],
      [
        "Ġh",
        "or"
      ],
      [
        "ĠG",
        "o"
      ],
      [
        "Ġb",
        "y"
      ],
      [
        "and",
        "s"
      ],
      [
        "s",
        "s"
      ],
      [
        "Ġ",
        "E"
      ],
      [
        "Ġan",
        "y"
      ],
      [
        "re",
        "at"
      ],
      [
        "Ġhe",
        "ar"
      ],
      [
        "w",
        "ard"
      ],
      [
        "Ġs",
        "on"
      ],
      [
        "is",
        "erys"
      ],
      [
        "i",
        "ck"
      ],
      [
        "j",
        "oy"
      ],
      [
        "Ġw",
        "or"
      ],
      [
        "b",
        "er"
      ],
      [
        "i",
        "le"
      ],
      [
        "n",
        "e"
      ],
      [
        "Ġa",
        "w"
      ],
      [
        "Ġw",
        "ere"
      ],
      [
        "Ġs",
        "ome"
      ],
      [
        "Ġne",
        "ver"
      ],
      [
        "a",
        "ys"
      ],
      [
        "i",
        "es"
      ],
      [
        "Ġg",
        "ood"
      ],
      [
        "ĠB",
        "ut"
      ],
      [
        "ĠDothrak",
        "i"
      ],
      [
        "Ġ",
        "v"
      ],
      [
        "Ġ",
        "ru"
      ],
      [
        "ou",
        "s"
      ],
      [
        "Ġf",
        "e"
      ],
      [
        "Ġne",
        "ed"
      ],
      [
        "ear",
        "s"
      ],
      [
        "E",
        "D"
      ],
      [
        "Ġa",
        "g"
      ],
      [
        "in",
        "ter"
      ],
      [
        "Ġb",
        "o"
      ],
      [
        "ĠA",
        "r"
      ],
      [
        "g",
        "g"
      ],
      [
        "Ġ",
        "âĢ"
      ],
      [
        "Ġd",
        "own"
      ],
      [
        "u",
        "n"
      ],
      [
        "ing",
        "s"
      ],
      [
        "ĠJ",
        "on"
      ],
      [
        "a",
        "b"
      ],
      [
        "f",
        "e"
      ],
      [
        "Ġt",
        "ime"
      ],
      [
        "ĠS",
        "er"
      ],
      [
        "Ġin",
        "to"
      ],
      [
        "ĠG",
        "rey"
      ],
      [
        "Ġ",
        "Robert"
      ],
      [
        "en",
        "ly"
      ],
      [
        "Ġt",
        "ell"
      ],
      [
        "s",
        "ide"
      ],
      [
        "Ġ",
        "or"
      ],
      [
        "Ġ",
        "our"
      ],
      [
        "Ġth",
        "ink"
      ],
      [
        "Ġri",
        "ght"
      ],
      [
        "rou",
        "nd"
      ],
      [
        "ĠGrey",
        "joy"
      ],
      [
        "t",
        "ing"
      ],
      [
        "Ġs",
        "c"
      ],
      [
        "Ġl",
        "ittle"
      ],
      [
        "ĠAr",
        "ry"
      ],
      [
        "ĠI",
        "f"
      ],
      [
        "Ġp",
        "l"
      ],
      [
        "ĠLan",
        "ding"
      ],
      [
        "ir",
        "l"
      ],
      [
        "v",
        "ing"
      ],
      [
        "Ġg",
        "irl"
      ],
      [
        "ĠG",
        "r"
      ],
      [
        "Ġsh",
        "ould"
      ],
      [
        "ĠP",
        "y"
      ],
      [
        "Ġar",
        "m"
      ],
      [
        "O",
        "N"
      ],
      [
        "e",
        "en"
      ],
      [
        "o",
        "l"
      ],
      [
        "re",
        "e"
      ],
      [
        "Ġc",
        "ould"
      ],
      [
        "ĠArry",
        "n"
      ],
      [
        "N",
        "ed"
      ],
      [
        "on",
        "s"
      ],
      [
        "ĠM",
        "aester"
      ],
      [
        "Ġk",
        "ing"
      ],
      [
        "ron",
        "n"
      ],
      [
        "Ġag",
        "ain"
      ],
      [
        "J",
        "aime"
      ],
      [
        "T",
        "heon"
      ],
      [
        "f",
        "ore"
      ],
      [
        "on",
        "or"
      ],
      [
        "Ġw",
        "ar"
      ],
      [
        "at",
        "h"
      ],
      [
        "Ġd",
        "ra"
      ],
      [
        "ĠThe",
        "re"
      ],
      [
        "ĠTh",
        "at"
      ],
      [
        "u",
        "s"
      ],
      [
        "Ġo",
        "ther"
      ],
      [
        "Ġaw",
        "ay"
      ],
      [
        "V",
        "arys"
      ],
      [
        "c",
        "ell"
      ],
      [
        "Ġa",
        "f"
      ],
      [
        "Ġh",
        "ad"
      ],
      [
        "Ġh",
        "ow"
      ],
      [
        "Ġbe",
        "en"
      ],
      [
        "--------",
        "--------"
      ],
      [
        "u",
        "l"
      ],
      [
        "w",
        "ell"
      ],
      [
        "Ġ",
        "U"
      ],
      [
        "Ġ",
        "qu"
      ],
      [
        "Ġt",
        "ake"
      ],
      [
        "re",
        "n"
      ],
      [
        "ĠW",
        "inter"
      ],
      [
        "B",
        "ran"
      ],
      [
        "S",
        "am"
      ],
      [
        "o",
        "s"
      ],
      [
        "Ġt",
        "ru"
      ],
      [
        "ar",
        "e"
      ],
      [
        "Ġhe",
        "ad"
      ],
      [
        "ir",
        "st"
      ],
      [
        "ĠTar",
        "ly"
      ],
      [
        "Ġwhe",
        "re"
      ],
      [
        "Ġj",
        "ust"
      ],
      [
        "'",
        "d"
      ],
      [
        "A",
        "N"
      ],
      [
        "Ġm",
        "ore"
      ],
      [
        "Ġl",
        "ord"
      ],
      [
        "he",
        "s"
      ],
      [
        "Ġh",
        "onor"
      ],
      [
        "Ġbe",
        "fore"
      ],
      [
        "Ġe",
        "very"
      ],
      [
        "ĠWh",
        "y"
      ],
      [
        "Ġro",
        "om"
      ],
      [
        "Ġhor",
        "se"
      ],
      [
        "e",
        "ep"
      ],
      [
        "m",
        "and"
      ],
      [
        "p",
        "s"
      ],
      [
        "Ġy",
        "ears"
      ],
      [
        "ĠT",
        "yrion"
      ],
      [
        "Ġth",
        "an"
      ],
      [
        "Ġst",
        "ill"
      ],
      [
        "L",
        "Y"
      ],
      [
        "f",
        "ell"
      ],
      [
        "o",
        "se"
      ],
      [
        "y",
        "win"
      ],
      [
        "Ġw",
        "on"
      ],
      [
        "ĠS",
        "e"
      ],
      [
        "Ġc",
        "l"
      ],
      [
        "Ġc",
        "ome"
      ],
      [
        "as",
        "e"
      ],
      [
        "Ġbe",
        "t"
      ],
      [
        "Ġe",
        "x"
      ],
      [
        "ĠGr",
        "ace"
      ],
      [
        "ĠWinter",
        "fell"
      ],
      [
        "o",
        "t"
      ],
      [
        "o",
        "ld"
      ],
      [
        "ou",
        "gh"
      ],
      [
        "Ġo",
        "ver"
      ],
      [
        "Ġch",
        "ild"
      ],
      [
        "cell",
        "e"
      ],
      [
        "M",
        "aester"
      ],
      [
        "i",
        "c"
      ],
      [
        "r",
        "and"
      ],
      [
        "ĠB",
        "ran"
      ],
      [
        "Ġdo",
        "es"
      ],
      [
        "Ġbl",
        "ood"
      ],
      [
        "ĠPy",
        "celle"
      ],
      [
        "Sam",
        "well"
      ],
      [
        "N",
        "ED"
      ],
      [
        "i",
        "ce"
      ],
      [
        "u",
        "ll"
      ],
      [
        "u",
        "ard"
      ],
      [
        "ĠJ",
        "offrey"
      ],
      [
        "J",
        "offrey"
      ],
      [
        "ou",
        "nd"
      ],
      [
        "Ġs",
        "l"
      ],
      [
        "ĠS",
        "o"
      ],
      [
        "ĠH",
        "ow"
      ],
      [
        "ĠH",
        "and"
      ],
      [
        "Ġgo",
        "ing"
      ],
      [
        "ĠF",
        "or"
      ],
      [
        "V",
        "iserys"
      ],
      [
        "e",
        "ct"
      ],
      [
        "Ġ",
        "ra"
      ],
      [
        "yri",
        "o"
      ],
      [
        "ĠC",
        "as"
      ],
      [
        "d",
        "er"
      ],
      [
        "t",
        "y"
      ],
      [
        "w",
        "ays"
      ],
      [
        "Ġa",
        "m"
      ],
      [
        "Ġw",
        "om"
      ],
      [
        "at",
        "e"
      ],
      [
        "Ġbe",
        "l"
      ],
      [
        "Ġp",
        "ro"
      ],
      [
        "ĠK",
        "hal"
      ],
      [
        "Ġli",
        "fe"
      ],
      [
        "ha",
        "e"
      ],
      [
        "Ġde",
        "ad"
      ],
      [
        "ĠWhe",
        "n"
      ],
      [
        "Ġwalk",
        "s"
      ],
      [
        "0",
        "0"
      ],
      [
        "Ġ",
        "\""
      ],
      [
        "Ġs",
        "er"
      ],
      [
        "Ġm",
        "ake"
      ],
      [
        "Ġm",
        "ust"
      ],
      [
        "Ġf",
        "ind"
      ],
      [
        "es",
        "i"
      ],
      [
        "Ġc",
        "our"
      ],
      [
        "Ġon",
        "ly"
      ],
      [
        "Ġal",
        "ways"
      ],
      [
        "Ġlook",
        "s"
      ],
      [
        "au",
        "gh"
      ],
      [
        "R",
        "O"
      ],
      [
        "e",
        "ak"
      ],
      [
        "Ġ",
        "Robb"
      ],
      [
        "an",
        "e"
      ],
      [
        "it",
        "e"
      ],
[...]
